{
  "version": "1.0",
  "truncation": null,
  "padding": null,
  "added_tokens": [
    {
      "id": 0,
      "content": "<|endoftext|>",
      "single_word": false,
      "lstrip": false,
      "rstrip": false,
      "normalized": false,
      "special": true
    }
  ],
  "normalizer": null,
  "pre_tokenizer": {
    "type": "ByteLevel",
    "add_prefix_space": false,
    "trim_offsets": true,
    "use_regex": true
  },
  "post_processor": {
    "type": "ByteLevel",
    "add_prefix_space": true,
    "trim_offsets": false,
    "use_regex": true
  },
  "decoder": {
    "type": "ByteLevel",
    "add_prefix_space": true,
    "trim_offsets": true,
    "use_regex": true
  },
  "model": {
    "type": "BPE",
    "dropout": null,
    "unk_token": null,
    "continuing_subword_prefix": null,
    "end_of_word_suffix": null,
    "fuse_unk": false,
    "byte_fallback": false,
    "vocab": {
      "<|endoftext|>": 0,
      "!": 1,
      "\"": 2,
      "#": 3,
      "$": 4,
      "%": 5,
      "&": 6,
      "'": 7,
      "(": 8,
      ")": 9,
      "*": 10,
      "+": 11,
      ",": 12,
      "-": 13,
      ".": 14,
      "/": 15,
      "0": 16,
      "1": 17,
      "2": 18,
      "3": 19,
      "4": 20,
      "5": 21,
      "6": 22,
      "7": 23,
      "8": 24,
      "9": 25,
      ":": 26,
      ";": 27,
      "<": 28,
      "=": 29,
      ">": 30,
      "?": 31,
      "@": 32,
      "A": 33,
      "B": 34,
      "C": 35,
      "D": 36,
      "E": 37,
      "F": 38,
      "G": 39,
      "H": 40,
      "I": 41,
      "J": 42,
      "K": 43,
      "L": 44,
      "M": 45,
      "N": 46,
      "O": 47,
      "P": 48,
      "Q": 49,
      "R": 50,
      "S": 51,
      "T": 52,
      "U": 53,
      "V": 54,
      "W": 55,
      "X": 56,
      "Y": 57,
      "Z": 58,
      "[": 59,
      "\\": 60,
      "]": 61,
      "^": 62,
      "_": 63,
      "`": 64,
      "a": 65,
      "b": 66,
      "c": 67,
      "d": 68,
      "e": 69,
      "f": 70,
      "g": 71,
      "h": 72,
      "i": 73,
      "j": 74,
      "k": 75,
      "l": 76,
      "m": 77,
      "n": 78,
      "o": 79,
      "p": 80,
      "q": 81,
      "r": 82,
      "s": 83,
      "t": 84,
      "u": 85,
      "v": 86,
      "w": 87,
      "x": 88,
      "y": 89,
      "z": 90,
      "{": 91,
      "|": 92,
      "}": 93,
      "~": 94,
      "¡": 95,
      "¢": 96,
      "£": 97,
      "¤": 98,
      "¥": 99,
      "¦": 100,
      "§": 101,
      "¨": 102,
      "©": 103,
      "ª": 104,
      "«": 105,
      "¬": 106,
      "®": 107,
      "¯": 108,
      "°": 109,
      "±": 110,
      "²": 111,
      "³": 112,
      "´": 113,
      "µ": 114,
      "¶": 115,
      "·": 116,
      "¸": 117,
      "¹": 118,
      "º": 119,
      "»": 120,
      "¼": 121,
      "½": 122,
      "¾": 123,
      "¿": 124,
      "Â": 125,
      "Ã": 126,
      "Ä": 127,
      "Å": 128,
      "Æ": 129,
      "Ç": 130,
      "È": 131,
      "É": 132,
      "Ê": 133,
      "Ë": 134,
      "Ì": 135,
      "Í": 136,
      "Î": 137,
      "Ï": 138,
      "Ð": 139,
      "Ñ": 140,
      "Ò": 141,
      "Ó": 142,
      "Ô": 143,
      "Õ": 144,
      "Ö": 145,
      "×": 146,
      "Ø": 147,
      "Ù": 148,
      "Ú": 149,
      "Û": 150,
      "Ü": 151,
      "Ý": 152,
      "Þ": 153,
      "ß": 154,
      "à": 155,
      "á": 156,
      "â": 157,
      "ã": 158,
      "ä": 159,
      "å": 160,
      "æ": 161,
      "ç": 162,
      "è": 163,
      "é": 164,
      "ê": 165,
      "ë": 166,
      "ì": 167,
      "í": 168,
      "î": 169,
      "ï": 170,
      "ð": 171,
      "ñ": 172,
      "ò": 173,
      "ó": 174,
      "ô": 175,
      "Ā": 176,
      "ā": 177,
      "Ă": 178,
      "ă": 179,
      "Ą": 180,
      "ą": 181,
      "Ć": 182,
      "ć": 183,
      "Ĉ": 184,
      "ĉ": 185,
      "Ċ": 186,
      "ċ": 187,
      "Č": 188,
      "č": 189,
      "Ď": 190,
      "ď": 191,
      "Đ": 192,
      "đ": 193,
      "Ē": 194,
      "ē": 195,
      "Ĕ": 196,
      "ĕ": 197,
      "Ė": 198,
      "ė": 199,
      "Ę": 200,
      "ę": 201,
      "Ě": 202,
      "ě": 203,
      "Ĝ": 204,
      "ĝ": 205,
      "Ğ": 206,
      "ğ": 207,
      "Ġ": 208,
      "ġ": 209,
      "Ģ": 210,
      "ģ": 211,
      "Ĥ": 212,
      "ĥ": 213,
      "Ħ": 214,
      "ħ": 215,
      "Ĩ": 216,
      "ĩ": 217,
      "Ī": 218,
      "ī": 219,
      "Ĭ": 220,
      "ĭ": 221,
      "Į": 222,
      "į": 223,
      "İ": 224,
      "ı": 225,
      "Ĳ": 226,
      "ĳ": 227,
      "Ĵ": 228,
      "ĵ": 229,
      "Ķ": 230,
      "ķ": 231,
      "ĸ": 232,
      "Ĺ": 233,
      "ĺ": 234,
      "Ļ": 235,
      "ļ": 236,
      "Ľ": 237,
      "ľ": 238,
      "Ŀ": 239,
      "ŀ": 240,
      "Ł": 241,
      "ł": 242,
      "Ń": 243,
      "،": 244,
      "؟": 245,
      "ء": 246,
      "آ": 247,
      "أ": 248,
      "ؤ": 249,
      "إ": 250,
      "ئ": 251,
      "ا": 252,
      "ب": 253,
      "ة": 254,
      "ت": 255,
      "ث": 256,
      "ج": 257,
      "ح": 258,
      "خ": 259,
      "د": 260,
      "ذ": 261,
      "ر": 262,
      "ز": 263,
      "س": 264,
      "ش": 265,
      "ص": 266,
      "ض": 267,
      "ط": 268,
      "ظ": 269,
      "ع": 270,
      "غ": 271,
      "ف": 272,
      "ق": 273,
      "ك": 274,
      "ل": 275,
      "م": 276,
      "ن": 277,
      "ه": 278,
      "و": 279,
      "ى": 280,
      "ي": 281,
      "ِ": 282,
      "ّ": 283,
      "ْ": 284,
      "ٓ": 285,
      "ٔ": 286,
      "ٕ": 287,
      "ٖ": 288,
      "ٗ": 289,
      "٘": 290,
      "ٙ": 291,
      "ٚ": 292,
      "ٛ": 293,
      "ٜ": 294,
      "ٝ": 295,
      "ٞ": 296,
      "ٟ": 297,
      "Ø§": 298,
      "ÙĦ": 299,
      "ÙĬ": 300,
      "ĠØ": 301,
      "Ø§ÙĦ": 302,
      "Ùħ": 303,
      "ÙĪ": 304,
      "ĠØ§ÙĦ": 305,
      "ÙĨ": 306,
      "Ø§Ø": 307,
      "Ø±": 308,
      "Ø©": 309,
      "ĠØ§ÙĦØ": 310,
      "ĠĠ": 311,
      "Ùĩ": 312,
      "Ùģ": 313,
      "Øª": 314,
      "Ġt": 315,
      "Ø¯": 316,
      "ÙĤ": 317,
      "Ùĥ": 318,
      "ĠÙĪ": 319,
      "ĠÙħ": 320,
      "Ġa": 321,
      "Ø¨": 322,
      "Ø¹": 323,
      "he": 324,
      "in": 325,
      "Ø³": 326,
      "re": 327,
      "on": 328,
      "ĠØ¨": 329,
      "Ġthe": 330,
      "ĠĠĠĠ": 331,
      "er": 332,
      "ØŃ": 333,
      "at": 334,
      "ĠÙģ": 335,
      "ĠØ£": 336,
      "ĠÙĦ": 337,
      "Ġs": 338,
      "ĠØ¹": 339,
      "Ùī": 340,
      "en": 341,
      "Ġo": 342,
      "ÙĬØ©": 343,
      "Ø¬": 344,
      "ĠØ§ÙĦÙħ": 345,
      "ĠØª": 346,
      "Ġw": 347,
      "Ø§Øª": 348,
      "Ġc": 349,
      "Ø§ÙĨ": 350,
      "is": 351,
      "it": 352,
      "or": 353,
      "ed": 354,
      "es": 355,
      "an": 356,
      "ĠÙģÙĬ": 357,
      "al": 358,
      "Ġp": 359,
      "Ø§Ø±": 360,
      "ĠÙħÙĨ": 361,
      "Ġf": 362,
      "Ø·": 363,
      "ĠÙĬ": 364,
      "Ġb": 365,
      "Øµ": 366,
      "Ġan": 367,
      "ing": 368,
      "ÙĬÙĨ": 369,
      "ar": 370,
      "Ġof": 371,
      "Ġin": 372,
      "ou": 373,
      "Ø´": 374,
      "Ġd": 375,
      "Ġm": 376,
      "Ġ,": 377,
      "Ø§Ùħ": 378,
      "ÙĦÙī": 379,
      "ion": 380,
      "ic": 381,
      "Ø®": 382,
      "Ġto": 383,
      "Ø¶": 384,
      "le": 385,
      "as": 386,
      "Ġand": 387,
      "--": 388,
      "Ø²": 389,
      "Ø£": 390,
      "ĠØ¥": 391,
      "ÙĩØ§": 392,
      "Ø°": 393,
      "ro": 394,
      "ĠÙĥ": 395,
      "ÙĬØ±": 396,
      "ĠĠĠĠĠĠĠĠ": 397,
      "Ġh": 398,
      "ĠÙĪØ§ÙĦ": 399,
      "ĠØ§ÙĦØª": 400,
      "ÙĪÙĦ": 401,
      "Ø«": 402,
      "Ġth": 403,
      "ent": 404,
      "ĠØ§ÙĦØ£": 405,
      "ĠØŃ": 406,
      "ÙĪÙĨ": 407,
      "Ġ\"": 408,
      "Ø§Ø¨": 409,
      "Ø§Ø¯": 410,
      "Ø§Ø³": 411,
      "ct": 412,
      "Ø±ÙĬ": 413,
      "Ġ(": 414,
      "ĠØ³": 415,
      "el": 416,
      "et": 417,
      "ĠÙĩ": 418,
      "Ġre": 419,
      "ĠÙĤ": 420,
      "Ġn": 421,
      "ÙĦÙĬ": 422,
      "Ø§Ø¡": 423,
      "ĠØ§ÙĦØ¹": 424,
      "st": 425,
      "ĠØ¹ÙĦÙī": 426,
      "om": 427,
      "Ġl": 428,
      "ĠÙĨ": 429,
      "il": 430,
      "Ġ1": 431,
      "Ġe": 432,
      "ĠØ£ÙĨ": 433,
      "ÙĪØ±": 434,
      "Ø§Ø¹": 435,
      "Ø§Ø¦": 436,
      "id": 437,
      "Øº": 438,
      "ĠÙĦÙĦ": 439,
      "ot": 440,
      "im": 441,
      "ig": 442,
      "Ġg": 443,
      "ĠØ¬": 444,
      "ÙħØ§": 445,
      "ve": 446,
      "ĠT": 447,
      "ut": 448,
      "Ġ2": 449,
      "ĠI": 450,
      "ÙĬØ¯": 451,
      "am": 452,
      "ĠØ§ÙĦØ³": 453,
      "ol": 454,
      "Ġis": 455,
      "ĠØ±": 456,
      "Ø§Ùģ": 457,
      "ly": 458,
      "ÙĩÙħ": 459,
      "ac": 460,
      "ĠS": 461,
      "us": 462,
      "----": 463,
      "ation": 464,
      "ĠØ§ÙĦØŃ": 465,
      "ad": 466,
      "ur": 467,
      "ow": 468,
      "ĠØ¯": 469,
      "Ġfor": 470,
      "Ø¸": 471,
      "Ġbe": 472,
      "ĠA": 473,
      "ÙĪÙħ": 474,
      "Ø§ÙĤ": 475,
      "ĠØ´": 476,
      "ĠC": 477,
      "Ø§ØŃ": 478,
      "un": 479,
      "Ġon": 480,
      "Ġthat": 481,
      "âĢ": 482,
      "ĠØ¨Ø§ÙĦ": 483,
      "ĠØ¹ÙĨ": 484,
      "ĠØ®": 485,
      "ÙĬÙĦ": 486,
      "ÙĦÙĥ": 487,
      "Ġst": 488,
      "..": 489,
      "Ø³Øª": 490,
      "ver": 491,
      "ay": 492,
      "Ġ-": 493,
      "ith": 494,
      "ul": 495,
      "ĠØ§ÙĦÙĤ": 496,
      "ce": 497,
      "00": 498,
      "ĠÙħØ¹": 499,
      "ĠØ§ÙĦØ¨": 500,
      "ĠØ§ÙĦÙĨ": 501,
      "Ø±Ø¨": 502,
      "Ø§Ø¬": 503,
      "ÙĨØ§": 504,
      "ĠØ§ÙĦØ¬": 505,
      "if": 506,
      "se": 507,
      "ØªÙħ": 508,
      "ĠØ¥ÙĦÙī": 509,
      "ir": 510,
      "Ġy": 511,
      "ĠØ§ÙĦØ¥": 512,
      "ĠØ§ÙĦØ¯": 513,
      "Ø¥": 514,
      "Ġwith": 515,
      "ĠØ§ÙĦØ´": 516,
      "ĠĠĠ": 517,
      "Ġhe": 518,
      "ÙħÙĨ": 519,
      "Ġcon": 520,
      "ch": 521,
      "Ġas": 522,
      "Ø¦": 523,
      "Ø±Ø©": 524,
      "ÙĪØ¯": 525,
      "ĠØµ": 526,
      "ter": 527,
      "Ø¹Ø¯": 528,
      "Ø°Ø§": 529,
      "ĠM": 530,
      "ĠĠĠĠĠĠĠĠĠĠĠĠĠĠĠĠ": 531,
      "ÙĦÙħ": 532,
      "ĠØ§ÙĦÙģ": 533,
      "ÙħÙĦ": 534,
      "od": 535,
      "ĠØ§ÙĦÙĦ": 536,
      "ÙĬØ§": 537,
      "Ø±Ùĥ": 538,
      "ÙĬÙħ": 539,
      "Ġit": 540,
      "ag": 541,
      "Ġal": 542,
      "Ġpro": 543,
      "ĠP": 544,
      "ÙĤØ¯": 545,
      "Ø¨Ø±": 546,
      "ab": 547,
      "em": 548,
      "um": 549,
      "Ø§Ø³Øª": 550,
      "ÙĪÙĤ": 551,
      "Ġwe": 552,
      "Ġv": 553,
      "ÙĦØ§": 554,
      "ri": 555,
      "Ġwas": 556,
      "Ġwh": 557,
      "pe": 558,
      "ate": 559,
      "ÙĬØ³": 560,
      "Ø¨ÙĬ": 561,
      "ĠØ§ÙĦØ±": 562,
      "Ġde": 563,
      "ĠB": 564,
      "qu": 565,
      "Ġ$": 566,
      "ĠØ§ÙĦØ®": 567,
      "Ġyou": 568,
      "Ø¤": 569,
      "os": 570,
      "res": 571,
      "ra": 572,
      "ØŃØ¯": 573,
      "ĠThe": 574,
      "ĠÙĪØª": 575,
      "Ø¹Ø©": 576,
      "pp": 577,
      "her": 578,
      "Ø§Øµ": 579,
      "ĠØ§ÙĦÙĥ": 580,
      "ist": 581,
      "ĠØ§ÙĨ": 582,
      "ĠH": 583,
      "ĠØ§ÙĦØªÙĬ": 584,
      "01": 585,
      "est": 586,
      "ĠØ§ÙĦØµ": 587,
      "==": 588,
      "Ø±ÙĪ": 589,
      "ht": 590,
      "Ġat": 591,
      "ĠØ§ÙĦØ°": 592,
      "ÙĥÙĨ": 593,
      "ÙĦØ©": 594,
      "ant": 595,
      "Ġex": 596,
      "ÙħØ©": 597,
      "ĠØ·": 598,
      "Ġcom": 599,
      "ĠÙħØ§": 600,
      "ÙĤØ©": 601,
      "ĠD": 602,
      "ĠØ£ÙĪ": 603,
      "ĠF": 604,
      "Ġr": 605,
      "Ġor": 606,
      "and": 607,
      "th": 608,
      "ld": 609,
      "ÙģÙĬ": 610,
      "ĠÙĪØ£": 611,
      "Ġse": 612,
      "ers": 613,
      "ĠØ§ÙĦÙĪ": 614,
      "Ġ\\": 615,
      "iv": 616,
      "Ø§Ø·": 617,
      "ain": 618,
      "--------": 619,
      "oc": 620,
      "Ġby": 621,
      "ĠW": 622,
      "Ġsu": 623,
      "Ġare": 624,
      "Ø¹ÙĦ": 625,
      "ess": 626,
      "rom": 627,
      "ĠR": 628,
      "ill": 629,
      "ore": 630,
      "op": 631,
      "ĠÙĦØ§": 632,
      "Ø§Ùĩ": 633,
      "ity": 634,
      "ØªÙĩ": 635,
      "ĠL": 636,
      "ĠØ°": 637,
      "ke": 638,
      "oun": 639,
      "ØªØ±": 640,
      "Ø¨Ø©": 641,
      "ÙĨÙĬ": 642,
      "Ø§Ø¶": 643,
      "ĠØº": 644,
      "Ġ3": 645,
      "ØªÙĬ": 646,
      "ment": 647,
      "ĠÙĦÙħ": 648,
      "Ġnot": 649,
      "ĠN": 650,
      "Ġha": 651,
      "ĠØ¹ÙĦÙĬ": 652,
      "Ø§Ø®": 653,
      "ction": 654,
      "Ø°Ùĩ": 655,
      "ĠÙĥØ§ÙĨ": 656,
      "Ø¨ÙĦ": 657,
      "ive": 658,
      "ÙħØ±": 659,
      "**": 660,
      "ÙĪØ§": 661,
      "end": 662,
      "ÙĬØ¹": 663,
      "Ø§Ø±Ø©": 664,
      "Ġne": 665,
      "ort": 666,
      "Ġ=": 667,
      "Ø¯Ø©": 668,
      "Ø±Ùģ": 669,
      "Ġfrom": 670,
      "ĠØ§ÙĦÙĦÙĩ": 671,
      "'s": 672,
      "ĠG": 673,
      "Ø¯ÙĬ": 674,
      "pt": 675,
      "ight": 676,
      "red": 677,
      "art": 678,
      "ÙĥÙĦ": 679,
      "ĠE": 680,
      "ÙĪÙĬ": 681,
      "ÙĪØ³": 682,
      "ÙĤÙĬ": 683,
      "ÙĥØ±": 684,
      "ĠÙħØŃ": 685,
      "ell": 686,
      "Ġ0": 687,
      "ud": 688,
      "Ø§Ø²": 689,
      "ĠØ§ÙĦØ·": 690,
      "ÙĬÙģ": 691,
      "Ġthis": 692,
      "Ġun": 693,
      "Ġsh": 694,
      "ĠÙĩØ°Ø§": 695,
      "te": 696,
      "Ø®Ø±": 697,
      ").": 698,
      "Ġus": 699,
      "ĠÙĪÙħ": 700,
      "ies": 701,
      "ÙĪØ¬": 702,
      "ren": 703,
      "ĠØ¨ÙĨ": 704,
      ".\"": 705,
      "Ġch": 706,
      "ÙĦØ§ÙĦ": 707,
      "ĠØªØ¹": 708,
      "pl": 709,
      "ĠØ§ÙĦÙħÙĨ": 710,
      "ial": 711,
      "Ø£ÙĨ": 712,
      "ĠÙĪÙĩ": 713,
      "ould": 714,
      "all": 715,
      "our": 716,
      "Ø³Ø¨": 717,
      "ated": 718,
      "Ø¨Ø¯": 719,
      "Ġhave": 720,
      "Ġle": 721,
      "fe": 722,
      "ÙĪØ¨": 723,
      "ĠÙĥÙĦ": 724,
      "ine": 725,
      "ĠØ§ÙĦÙħØª": 726,
      "Ø¬ÙĦ": 727,
      "ure": 728,
      "ĠØ¥ÙĨ": 729,
      "ĠØ§ÙĦØ°ÙĬ": 730,
      "ĠØ«": 731,
      "ÙĬØ§Øª": 732,
      "âĢĻ": 733,
      "Ø¬Ùħ": 734,
      "ĠØªØŃ": 735,
      "ÙĥÙĪÙĨ": 736,
      "Ġ201": 737,
      "ĠØ§ÙĦØ«": 738,
      "Ġ4": 739,
      "Ø³ÙĦ": 740,
      "og": 741,
      "Ġ*": 742,
      "Ø´Ø±": 743,
      "ust": 744,
      "Ø¯Ùħ": 745,
      "ge": 746,
      "ÙħØ¯": 747,
      "ĠO": 748,
      "ĠÙĩØ°Ùĩ": 749,
      "Ø§ÙĨÙĬ": 750,
      "ie": 751,
      "Ø§Ùĥ": 752,
      "ÙĪÙģ": 753,
      "Ø¯ÙĬØ¯": 754,
      "Ø±Ø¶": 755,
      "Ġk": 756,
      "ard": 757,
      "ich": 758,
      "ÙĪØ¹": 759,
      "ĠØ¨ÙĬÙĨ": 760,
      "Ø§Ø´": 761,
      "ØµÙĦ": 762,
      "per": 763,
      "Ġ19": 764,
      "ĊĊ": 765,
      "ĠØ§Ø³Øª": 766,
      "ack": 767,
      "Ø³ÙĬ": 768,
      "ÙĦÙģ": 769,
      "Ø§ÙĦÙħ": 770,
      "ical": 771,
      "{\\": 772,
      "Ø§Ø¯Ø©": 773,
      "ĠØ¨Ø¹Ø¯": 774,
      "ĠĠĠĠĠĠĠ": 775,
      "Ø§Ø©": 776,
      "Ø¯Ø§": 777,
      "Ø¯Ø±": 778,
      "ĠØ£ÙĬ": 779,
      "ĠÙĪÙĤ": 780,
      "Ġ5": 781,
      "ĠØ§ÙĦÙĬ": 782,
      "iz": 783,
      "Ġcan": 784,
      "ame": 785,
      "ÙĬØª": 786,
      "Ġj": 787,
      "age": 788,
      "out": 789,
      "ØµØ±": 790,
      "Ġ[": 791,
      "up": 792,
      "ĠJ": 793,
      "ÙĬØ±Ø©": 794,
      "ome": 795,
      "Ġme": 796,
      "ĠIn": 797,
      "ĠØ²": 798,
      "ib": 799,
      "Ø§Ø«": 800,
      "ue": 801,
      "Ø¹Ùħ": 802,
      "der": 803,
      "Ġwhe": 804,
      "ØªØ¨": 805,
      "ost": 806,
      "Ġab": 807,
      "ØŃØ©": 808,
      "ÙĩØ±": 809,
      "ÙĨØ©": 810,
      "Ġtr": 811,
      "Ġpl": 812,
      "Ġwere": 813,
      "ĠØ¶": 814,
      "able": 815,
      "cl": 816,
      "ÙĩØ¯": 817,
      "ÙĥØ§ÙĨ": 818,
      "Ø·ÙĦ": 819,
      "ide": 820,
      "ĠÙĪØ§ÙĦÙħ": 821,
      "ast": 822,
      "ĠÙĩÙĪ": 823,
      "Ġcl": 824,
      "ult": 825,
      "Ġres": 826,
      "ÙĤÙĦ": 827,
      "Ø§Ø±Ø§Øª": 828,
      "Ø³Ùħ": 829,
      "ans": 830,
      "ĠØªÙħ": 831,
      "ĠØ°ÙĦÙĥ": 832,
      "ath": 833,
      "The": 834,
      "ther": 835,
      "Ġcomp": 836,
      "Ø¦ÙĬØ³": 837,
      "ĠÙĪØ¨": 838,
      "ĠØ¢": 839,
      "Ġhis": 840,
      "Ġall": 841,
      "act": 842,
      "ase": 843,
      "ak": 844,
      "ass": 845,
      "ĠU": 846,
      "ound": 847,
      "ÙĬØ²": 848,
      "ÙĥÙħ": 849,
      "Ġad": 850,
      "ĠÙĬØ¹": 851,
      "ap": 852,
      "Ġdo": 853,
      "Ġim": 854,
      "Ø¥ÙĨ": 855,
      "ÙĪØ¶": 856,
      "ÙĬØ«": 857,
      "Ġcont": 858,
      "ous": 859,
      "ign": 860,
      "Ġ{": 861,
      "ÙĪÙĦØ©": 862,
      "orm": 863,
      "oug": 864,
      "ip": 865,
      "Ø«Ø±": 866,
      "Ø·Ø©": 867,
      "ind": 868,
      "ÙĤØ±": 869,
      "ĊĠĠĠ": 870,
      "Ø§Ø±ÙĬ": 871,
      "ĠÙħØª": 872,
      "Ø¹Ø¶": 873,
      "Ġwhich": 874,
      "====": 875,
      "ĠÙĦØª": 876,
      "Ø§ÙĦÙĬ": 877,
      "ok": 878,
      "ub": 879,
      "one": 880,
      "),": 881,
      "ong": 882,
      "ÙĨØª": 883,
      "Ġbut": 884,
      "ition": 885,
      "Ġint": 886,
      "ĠØ£Ùħ": 887,
      "ĠÙħØ´": 888,
      "ĠØ¹Ø§Ùħ": 889,
      "ĠÙĬØª": 890,
      "Ġen": 891,
      "ph": 892,
      "ĠÙħØ³": 893,
      "ÙĪØª": 894,
      "ĠØ§ÙĦÙħØŃ": 895,
      "ary": 896,
      "ĠØ®ÙĦØ§ÙĦ": 897,
      "Ġar": 898,
      "ice": 899,
      "Ġwor": 900,
      "cc": 901,
      "ĠâĢ": 902,
      "ĠØ³ÙĬ": 903,
      "Ø®Øµ": 904,
      "ÙĪØ±Ø©": 905,
      "ĠĠĠĠĠĠĠĠĠĠĠĠĠĠĠĠĠĠĠĠĠĠĠĠĠĠĠĠĠĠĠĠ": 906,
      "ĠÙĪÙĬ": 907,
      "ÙĪØ§Øª": 908,
      "ÙĪØ²": 909,
      "ÙģØ³": 910,
      "Ø±ÙĤ": 911,
      "ime": 912,
      "ĠØ£Ùĥ": 913,
      "Ø±ÙĬÙĤ": 914,
      "ĠØ§": 915,
      "Ø¬Ø±": 916,
      "ia": 917,
      "ep": 918,
      "Ø¹Ø¨": 919,
      "ĠÙĪØ³": 920,
      "Ġhas": 921,
      "Ø¡": 922,
      "ty": 923,
      "Ġ+": 924,
      "Ġdis": 925,
      "ens": 926,
      "du": 927,
      "ĠÙĬÙħ": 928,
      ");": 929,
      "Ø§ÙĨÙĬØ©": 930,
      "ress": 931,
      "ne": 932,
      "Ġ6": 933,
      "Ø§ÙĦØ©": 934,
      "int": 935,
      "ØªÙĩØ§": 936,
      "ence": 937,
      "ff": 938,
      "Ġout": 939,
      "ØªÙī": 940,
      "Ġhad": 941,
      "ĠÙĦÙĩ": 942,
      "ĠØ§ÙĦØ£Ùħ": 943,
      "ber": 944,
      "ations": 945,
      "Ġqu": 946,
      "Ġgo": 947,
      "ÙģØ±": 948,
      "ÙĨØ¯": 949,
      "ĠÙħØ¯": 950,
      "Ø¨Ø§Ø±": 951,
      "ÙĨØ³": 952,
      "Ø±ÙĥØ©": 953,
      "av": 954,
      "ĠØ§ÙĦÙħØ¹": 955,
      "----------------": 956,
      "=\"": 957,
      "ru": 958,
      "ĠØ§ÙĦØ¹Ø§Ùħ": 959,
      "ace": 960,
      "ĠØ¬Ùħ": 961,
      "Ø°ÙĦÙĥ": 962,
      "con": 963,
      "Ø«ÙĦ": 964,
      "ĠÙĪØ§ÙĦØª": 965,
      "ĠÙħØ±": 966,
      "ĠÙĪØ¬": 967,
      "Ġone": 968,
      "ile": 969,
      "ĠÙĪØ¹": 970,
      "\".": 971,
      "ory": 972,
      "_{": 973,
      "ose": 974,
      "Ġper": 975,
      "ĊĠ": 976,
      "ÙĪØ±ÙĬ": 977,
      "ĠØ¨ÙĦ": 978,
      "ĠØ§ÙĦÙħØ³": 979,
      "ance": 980,
      "ĠÙĥÙħØ§": 981,
      "ĊĠĠĠĠĠĠĠĠ": 982,
      "Ø§ÙģØ©": 983,
      "ents": 984,
      "ĠØ¨Ùħ": 985,
      "Ġwill": 986,
      "ĠØ§ÙĦØº": 987,
      "Ø´Ø§Ø±": 988,
      "ØªØµ": 989,
      "ĠK": 990,
      "ĠÙĤØ¯": 991,
      "...": 992,
      "ally": 993,
      "ÙĦØ¨": 994,
      "ĠTh": 995,
      "Âł": 996,
      "ĠØ§ÙĦÙĩ": 997,
      "ĠØ¹ÙĦÙĬÙĩ": 998,
      "ĠØªÙĨ": 999,
      "Ġso": 1000,
      "ÙĪÙī": 1001,
      "so": 1002,
      "ĠÙĪÙĦ": 1003,
      "ÙĨÙĬØ©": 1004,
      "Ġthey": 1005,
      "ire": 1006,
      "Ġup": 1007,
      "ÙĪÙĬØ©": 1008,
      "ĠÙĤØ§ÙĦ": 1009,
      "ely": 1010,
      "ough": 1011,
      "ang": 1012,
      "//": 1013,
      "ĠØ§ÙĦØ²": 1014,
      "ØŃÙĬ": 1015,
      "ach": 1016,
      "are": 1017,
      "ry": 1018,
      "Ø³Ø±": 1019,
      "ear": 1020,
      "}}": 1021,
      "ĠÙĩÙĬ": 1022,
      "ÙĦØ§Ùħ": 1023,
      "ĠÙģÙī": 1024,
      "Ġif": 1025,
      "Ø§ÙĦÙĬØ©": 1026,
      "ite": 1027,
      "ĠÙĤØ¨ÙĦ": 1028,
      "Ø§Ø°": 1029,
      "Ø®ÙĦ": 1030,
      "Ġtheir": 1031,
      "Ġev": 1032,
      "ĠÙĦÙĦÙħ": 1033,
      "Ġher": 1034,
      "de": 1035,
      "Ġ7": 1036,
      "ll": 1037,
      "Ø³Ø©": 1038,
      "ĠØ¨Ø¯": 1039,
      "ĠØ¨Ø±": 1040,
      "own": 1041,
      "ĠÙĪÙĦØ§": 1042,
      "ĠØ§ÙĦÙħØ±": 1043,
      "Ġsa": 1044,
      "ĠØ§ÙĦØ§ÙĨ": 1045,
      "ions": 1046,
      "Ø¶Ø§": 1047,
      "Ø¨ØŃ": 1048,
      "ĠÙĬÙĤ": 1049,
      "Ġpart": 1050,
      "Ġapp": 1051,
      "ĠØŃÙĬØ«": 1052,
      "port": 1053,
      "Ġmore": 1054,
      "rent": 1055,
      "ĠØºÙĬØ±": 1056,
      "form": 1057,
      "ĠØªÙĤ": 1058,
      "ord": 1059,
      "ĠØ¹ÙĨØ¯": 1060,
      "ÙĬØ¨": 1061,
      "ĠÙħØ³Øª": 1062,
      "ØªØŃ": 1063,
      "Ġmy": 1064,
      "Ġthere": 1065,
      "ĠØ¨Ùĩ": 1066,
      "ĠØ§ÙĦØ³ÙĬ": 1067,
      "ÙĪÙĥ": 1068,
      "ĠØ§ÙĦÙħØ³Øª": 1069,
      "ĠV": 1070,
      "ĠØ§ÙĦØ¢": 1071,
      "ĉĉ": 1072,
      "'t": 1073,
      "xt": 1074,
      "Ø¯Ø¯": 1075,
      "Ġman": 1076,
      "ÙĬÙĨØ©": 1077,
      "ĠØ¨Ø´": 1078,
      "Ø§Ø¹Ø©": 1079,
      "Ġag": 1080,
      "Ø·Ø±": 1081,
      "Ġli": 1082,
      "ÙĦÙĬÙħ": 1083,
      "Ġ8": 1084,
      "ĠØ§ÙĦÙĬÙĪÙħ": 1085,
      "ÙĪØ§ÙĨ": 1086,
      "ors": 1087,
      "very": 1088,
      "Ø¹Ø§": 1089,
      "Ġpre": 1090,
      "Ġother": 1091,
      "ÙĥØª": 1092,
      "ĠSt": 1093,
      "ook": 1094,
      "ĠØ§ÙĦÙī": 1095,
      "ĠÙħÙĪ": 1096,
      "Ġbeen": 1097,
      "Ø¢": 1098,
      "ake": 1099,
      "ail": 1100,
      "ĠØ§ÙĦØ¹Ø±Ø¨": 1101,
      "Ġyour": 1102,
      "Ġgr": 1103,
      "Ġno": 1104,
      "vel": 1105,
      "ect": 1106,
      "Ø¦Ø©": 1107,
      "ÙģØ¶": 1108,
      "ĠÙĪÙħÙĨ": 1109,
      "ĠØ¨ØŃ": 1110,
      "ft": 1111,
      "Ø¹Ø±": 1112,
      "ĠØŃØªÙī": 1113,
      "Ġsp": 1114,
      "ree": 1115,
      "__": 1116,
      "Ø§Ø¯ÙĬ": 1117,
      "Ġwould": 1118,
      "ĠØ§ÙĦÙħÙĪ": 1119,
      "Ġsc": 1120,
      "ĊĠĠĠĠĠĠĠ": 1121,
      "Ġ200": 1122,
      "Ø«ÙĬØ±": 1123,
      "ĠØ¨Øª": 1124,
      "ĠØ£ÙĨÙĩ": 1125,
      "ys": 1126,
      "Ġ'": 1127,
      "Ġ10": 1128,
      "Ġ<": 1129,
      "ks": 1130,
      "Ġwho": 1131,
      "lic": 1132,
      "ÙĪØ©": 1133,
      "urn": 1134,
      "we": 1135,
      "\",": 1136,
      "ĠØªØ±": 1137,
      "ĠØ§ÙĦÙħØ¯": 1138,
      "ĠÙĬÙħÙĥÙĨ": 1139,
      "ĠØ§ÙĦØ¹Ø§ÙĦÙħ": 1140,
      "com": 1141,
      "ĠÙĪØŃ": 1142,
      "ĠÙĬØŃ": 1143,
      "ÙģØ¹": 1144,
      "ÙĤØ·": 1145,
      "Ø§Ø¨Ø©": 1146,
      "ĠØªØª": 1147,
      "ÙĦÙĩ": 1148,
      "19": 1149,
      "aus": 1150,
      "ĠÙĪØ²": 1151,
      "Ġalso": 1152,
      "10": 1153,
      "Ġ|": 1154,
      "ÙĪÙĤØ¹": 1155,
      "ĠÙĪÙĨ": 1156,
      "Ø±Ø§Ø¡": 1157,
      "ĠÙĪÙĥ": 1158,
      "ĠØ§ÙĦØ§Ø³Øª": 1159,
      "Ø¬Ø©": 1160,
      "ĠØ¨Ø¹Ø¶": 1161,
      "erv": 1162,
      "ĠØªØ¬": 1163,
      "ĠÙħÙĤ": 1164,
      "ÙģØ©": 1165,
      "Ġany": 1166,
      "ĠØ£Ø³": 1167,
      "Ġ$\\": 1168,
      "Ġabout": 1169,
      "ates": 1170,
      "ater": 1171,
      "Ġwhen": 1172,
      "low": 1173,
      "Ø®Øª": 1174,
      "wo": 1175,
      "Ġtime": 1176,
      "âĢĿ": 1177,
      "Ġ9": 1178,
      "ĠÙĦÙĬ": 1179,
      "ÙĥÙĬ": 1180,
      "20": 1181,
      "ĠØ£Ø¨": 1182,
      "ĠØ¹Ø¨Ø¯": 1183,
      "ĠØ§ÙĦØ¬Ùħ": 1184,
      "ĠØ§ÙĦØ¹ÙħÙĦ": 1185,
      "ÙĪÙħØ©": 1186,
      "ĠØ§ÙĦØ¯ÙĪÙĦ": 1187,
      "Ġro": 1188,
      "ĠĠĠĠĠ": 1189,
      "ĠÙĪØ¥": 1190,
      "Ø³Ø·": 1191,
      "eth": 1192,
      "ĠØ§Ø¨": 1193,
      "Ġover": 1194,
      "ata": 1195,
      "In": 1196,
      "ric": 1197,
      "fter": 1198,
      "ĠÙĩÙĨØ§": 1199,
      "ÙĤØ¯Ùħ": 1200,
      "ĠØ§ÙĦÙħØ´": 1201,
      "ĠÙĬØ¬": 1202,
      "[@": 1203,
      "math": 1204,
      "Ġits": 1205,
      "ĠØªØ´": 1206,
      "Ġthan": 1207,
      "ÙĬÙĪ": 1208,
      "Ġsome": 1209,
      "Ø¹ÙĪØ¯": 1210,
      "ific": 1211,
      "erm": 1212,
      "ĠØ§ÙĦÙħØµ": 1213,
      "irst": 1214,
      "ĠØ¹ÙħÙĦ": 1215,
      "Ġob": 1216,
      "ĠY": 1217,
      "Ø£Ø³": 1218,
      "ÙĬØ§ÙĨ": 1219,
      "Ø±Ø¯": 1220,
      "Ġkn": 1221,
      "ĠÙĥØ§ÙĨØª": 1222,
      "ob": 1223,
      "ays": 1224,
      "ount": 1225,
      "Ġte": 1226,
      "Ġshe": 1227,
      "ĠØ§Ø®": 1228,
      "Ġam": 1229,
      "ove": 1230,
      "Ġbet": 1231,
      "ÙĦÙĤ": 1232,
      "Ġ&": 1233,
      "ĠÙĪÙĩÙĪ": 1234,
      "Ġspe": 1235,
      "hat": 1236,
      "\\]": 1237,
      "Ġfe": 1238,
      "ces": 1239,
      "Ġdes": 1240,
      "ĠÙħØ¬": 1241,
      "Ø§ÙħÙĦ": 1242,
      "ov": 1243,
      "cre": 1244,
      "ĠØ§Ø¹": 1245,
      "ĠØ§ÙĦÙħÙĤ": 1246,
      "Ġinto": 1247,
      "ĠIt": 1248,
      "ĠÙĪÙģ": 1249,
      "Ø§ØµØ©": 1250,
      "ĠØ§ÙĦØ£Ø³": 1251,
      "ÙĬØ´": 1252,
      "ied": 1253,
      "ple": 1254,
      "ings": 1255,
      "ject": 1256,
      "ĠØ§Ø³": 1257,
      "ĠØ«Ùħ": 1258,
      "vers": 1259,
      "Ġass": 1260,
      "Ø§Ø¦ÙĬØ©": 1261,
      "ĠÙħØµ": 1262,
      "ĠØªØµ": 1263,
      "rib": 1264,
      "ian": 1265,
      "hed": 1266,
      "ref": 1267,
      "Ġsy": 1268,
      "ĠHe": 1269,
      "ĠÙħØŃÙħØ¯": 1270,
      "lect": 1271,
      "Ġdif": 1272,
      "Ø¬ÙĦØ³": 1273,
      "ÙĬÙĬÙĨ": 1274,
      "Ø¸Ø±": 1275,
      "ÙĥØ©": 1276,
      "Ġgen": 1277,
      "}$": 1278,
      "12": 1279,
      "ÙĬØ¬": 1280,
      "ĠÙħØ¤": 1281,
      "clud": 1282,
      "Ġthem": 1283,
      "ĠAn": 1284,
      "Ġ20": 1285,
      "iss": 1286,
      "gr": 1287,
      "old": 1288,
      "reat": 1289,
      "ish": 1290,
      "Ġinter": 1291,
      "row": 1292,
      "ĠCh": 1293,
      "Ġoff": 1294,
      "Ġ?": 1295,
      "ĠØªØ³": 1296,
      "ĠÙĦØ£": 1297,
      "ÙģØª": 1298,
      "ĠØ§ÙĦØªØ¹": 1299,
      "ĠÙĬÙĨ": 1300,
      "ØªØ¯": 1301,
      "ÙĦÙĬØ©": 1302,
      "fect": 1303,
      "ÙĬÙĩ": 1304,
      "Ġnew": 1305,
      "ĠÙĪÙģÙĬ": 1306,
      "ĠÙĪÙĦÙĥ": 1307,
      "ĠØ§ØŃ": 1308,
      "ĠØ§Øª": 1309,
      "Ø¨ÙĬØ±": 1310,
      "ĠÙĬÙĪÙħ": 1311,
      "Ġsub": 1312,
      "ĠÙĪØ§ØŃ": 1313,
      "ĠØ±Ø¦ÙĬØ³": 1314,
      "ced": 1315,
      "Ø¨ÙĨ": 1316,
      "Ø¶Ø¹": 1317,
      "ØºÙĬØ±": 1318,
      "Ġacc": 1319,
      "Ġcomm": 1320,
      "ÙĪÙĦØ§": 1321,
      "ink": 1322,
      "Ġtwo": 1323,
      "Ġrec": 1324,
      "Ġsaid": 1325,
      "ÙĤÙĬÙĤ": 1326,
      "Ø±ÙĥØ²": 1327,
      "ark": 1328,
      "Ġ}": 1329,
      "ØŃØ¯Ø©": 1330,
      "ØŃØ±": 1331,
      "Ø§ÙĦØª": 1332,
      "Ġpe": 1333,
      "Ġunder": 1334,
      "ĠÙĪØ§ÙĦØ£": 1335,
      "Ø³ÙĦØ§Ùħ": 1336,
      "ØªÙħØ§Ø¹": 1337,
      "Ġonly": 1338,
      "ØŃÙĪ": 1339,
      "Ġlike": 1340,
      "Ġact": 1341,
      "itt": 1342,
      "Ø¨Ùĩ": 1343,
      "Ø¨Øª": 1344,
      "ps": 1345,
      "Ġget": 1346,
      "ĠØ§ÙĦÙħØ¬": 1347,
      "Ø§Ø¦ÙĬ": 1348,
      "ĠÙĬÙĥÙĪÙĨ": 1349,
      "Ø®Ø±Ùī": 1350,
      "Ġrel": 1351,
      "ual": 1352,
      "Ġcons": 1353,
      "Ġwhat": 1354,
      "Ġhim": 1355,
      "ĠØ¨Ø£ÙĨ": 1356,
      "ious": 1357,
      "ause": 1358,
      "ck": 1359,
      "ick": 1360,
      "ild": 1361,
      "Ġmod": 1362,
      "Ø§Ø¦ÙĦ": 1363,
      "Ġ/": 1364,
      "^{": 1365,
      "Ø¯ÙĬØ¯Ø©": 1366,
      "Ø®Ø¯": 1367,
      "ons": 1368,
      "ĠØ§ÙĦØ¶": 1369,
      "ĠÙĦØ£ÙĨ": 1370,
      "11": 1371,
      "Ġwork": 1372,
      "Ġbl": 1373,
      "Ġbec": 1374,
      "ma": 1375,
      "ĠÙĪÙĦÙĥÙĨ": 1376,
      "ade": 1377,
      "Ġmay": 1378,
      "ĠØ§ÙĦØ±Ø¦ÙĬØ³": 1379,
      "Ã©": 1380,
      "ÙĪØµ": 1381,
      "the": 1382,
      "ĠØ³Ø¨": 1383,
      "Ġfirst": 1384,
      "Ø±Ø§Øª": 1385,
      "Ø·ÙĤØ©": 1386,
      "Ġour": 1387,
      "ĠâĢľ": 1388,
      "ĠÙĦÙĥÙĨ": 1389,
      "ØªÙĦ": 1390,
      "ular": 1391,
      "get": 1392,
      "ĠØ£ÙĥØ«Ø±": 1393,
      "Ø¸Ø§Ùħ": 1394,
      "Ø¨Ø§Øª": 1395,
      "ÙĥØ³": 1396,
      "Ø§Ø¹Ø¯": 1397,
      "ert": 1398,
      "igh": 1399,
      "Ø§Ø±ÙĬØ®": 1400,
      "ĠØ§Ùħ": 1401,
      "Ø§Ø³Ø©": 1402,
      "ĠØ¨Ø£": 1403,
      "ØªÙģ": 1404,
      "Ø¬Ùĩ": 1405,
      "Ġyear": 1406,
      "ãģ": 1407,
      "ĠÙģØ¥ÙĨ": 1408,
      "ÙĪØ§Ø±": 1409,
      "ĠØ£Øµ": 1410,
      "mer": 1411,
      "Ø§Øº": 1412,
      "Ġfun": 1413,
      "Ġstud": 1414,
      "ĠØ¥ÙĦØ§": 1415,
      "Ġind": 1416,
      "Ø§Ø³ÙĬØ©": 1417,
      "ug": 1418,
      "ative": 1419,
      "ĠØ¥Ø°Ø§": 1420,
      "ĠØ¨ÙĩØ§": 1421,
      "Ø±Ø§Ø±": 1422,
      "Ġpos": 1423,
      "ÙĤØ§": 1424,
      "ĠØ¸": 1425,
      "Ø§ÙĦØ§Øª": 1426,
      "ĠÙģÙĬÙĩØ§": 1427,
      "ĠØ¹Ùħ": 1428,
      "ring": 1429,
      "Ġ12": 1430,
      "Ø¹ÙĬØ©": 1431,
      "Ġla": 1432,
      "Ġco": 1433,
      "Ġreg": 1434,
      "Ø§ÙħØ¬": 1435,
      "ĠØ£ØŃ": 1436,
      "ĠØ§ÙĦØ§Øª": 1437,
      "ĠÙħØ«ÙĦ": 1438,
      "ĠÙĨÙģØ³": 1439,
      "pect": 1440,
      "ÙĬÙĥ": 1441,
      "Ġpr": 1442,
      "ĠØ³Øª": 1443,
      "ĠÙģØ±": 1444,
      "Ø²Ø©": 1445,
      "ĠØ§ÙĦÙĪØ·": 1446,
      "ĠØ§ÙĦÙħØ¤": 1447,
      "Ġdef": 1448,
      "ĠÙģÙĬÙĩ": 1449,
      "Ġph": 1450,
      "Ġtrans": 1451,
      "Ġ_": 1452,
      "elf": 1453,
      "Ġcould": 1454,
      "Ø§Ø¬ØªÙħØ§Ø¹": 1455,
      "ØªØ®": 1456,
      "iew": 1457,
      "ock": 1458,
      "ased": 1459,
      "ĠØ§ÙĦØ¨ÙĦ": 1460,
      "Ġsuch": 1461,
      "201": 1462,
      "Ø¨Ø§": 1463,
      "ont": 1464,
      "Ø§ÙĨÙĪÙĨ": 1465,
      "ĠØ¨Ø§ÙĦÙħ": 1466,
      "Ġadd": 1467,
      "ØµØ©": 1468,
      "Ġval": 1469,
      "ĠØ£ØŃØ¯": 1470,
      "ÙĬÙĦØ©": 1471,
      "ÙĦØª": 1472,
      "##": 1473,
      "Ġjust": 1474,
      "ood": 1475,
      "ĠØ£ÙĬØ¶Ø§": 1476,
      "Ġ18": 1477,
      "Ġinv": 1478,
      "ĠÙĬØªÙħ": 1479,
      "oth": 1480,
      "Ġwhere": 1481,
      "ĠÙĪÙĤØ¯": 1482,
      "Ø§Ø±Ø¬": 1483,
      "ĠThis": 1484,
      "Ø§ÙĤØ©": 1485,
      "cess": 1486,
      "Ġafter": 1487,
      "Ġcol": 1488,
      "ĠØ¬ÙħÙĬØ¹": 1489,
      "========": 1490,
      "ating": 1491,
      "oint": 1492,
      "ÙĨØ§Ø¡": 1493,
      "Ø¹Øª": 1494,
      "Ġpres": 1495,
      "ÙĪØ±ÙĬØ©": 1496,
      "ef": 1497,
      "Ø¨ÙĬØ©": 1498,
      "ÙĦØ§Ø«": 1499,
      "000": 1500,
      "Ø±Ø¬": 1501,
      "ÙĩÙĦ": 1502,
      "ÙĪØŃ": 1503,
      "ĠØªØ¯": 1504,
      "Ġthen": 1505,
      "Ġthese": 1506,
      "Ø§ÙħØ©": 1507,
      "Ġdet": 1508,
      "Ø³ÙĨ": 1509,
      "ØµÙģ": 1510,
      "ÙĬÙĨØ§": 1511,
      "ÙĪØ¹Ø©": 1512,
      "ient": 1513,
      "ss": 1514,
      "Ġret": 1515,
      "Ġ.": 1516,
      "ĠØ§ÙĦØŃÙĥ": 1517,
      "Ø±ÙĬØ¯": 1518,
      "ode": 1519,
      "ond": 1520,
      "Ġdiffe": 1521,
      "Ġatt": 1522,
      "ĠWe": 1523,
      "les": 1524,
      "Ø®ØªÙĦÙģ": 1525,
      "ĠØªØ£": 1526,
      "olog": 1527,
      "stem": 1528,
      "ween": 1529,
      "Ø§Ø¶ÙĬ": 1530,
      "Ġem": 1531,
      "Ø¹ÙĬ": 1532,
      "ĠØ§ÙĦØªÙĨ": 1533,
      "pro": 1534,
      "ĠØ¨Ø´ÙĥÙĦ": 1535,
      "ØªØ¬": 1536,
      "Ġhow": 1537,
      "hen": 1538,
      "ØµÙĪÙĦ": 1539,
      "Ġrem": 1540,
      "Ġsign": 1541,
      "Ġdid": 1542,
      "Ġ15": 1543,
      "?\"": 1544,
      "ÙģÙĦ": 1545,
      "Ø§ØŃØ©": 1546,
      "ÙĪØ§ÙĦ": 1547,
      "Ø§ÙģØ¸": 1548,
      "Ø§Ø¨Ø§Øª": 1549,
      "ÙĪØ§Ø¬": 1550,
      "Ġexp": 1551,
      "Ġpol": 1552,
      "io": 1553,
      "ĠÙħØµØ±": 1554,
      "ĠØ§Ø±": 1555,
      "ec": 1556,
      "ÙĩØ©": 1557,
      "Ġprov": 1558,
      "ÙĨÙĬÙĨ": 1559,
      "Ø¸Ùħ": 1560,
      "Ġbetween": 1561,
      "Ġset": 1562,
      "ĠÙĬØ³Øª": 1563,
      "Ġpat": 1564,
      "ict": 1565,
      "ĠUn": 1566,
      "ility": 1567,
      "ĠÙĩÙĨØ§Ùĥ": 1568,
      "Ø®Ø¯Ùħ": 1569,
      "ĠØ£Ø¹": 1570,
      "ĠØ¥ÙĦÙĬ": 1571,
      "ĠÙĦÙĨ": 1572,
      "ĠÙĦÙĩØ§": 1573,
      "ĠØŃØ¯": 1574,
      "ise": 1575,
      "ĠØ§ÙĦØ¨Ø±": 1576,
      "ople": 1577,
      "</": 1578,
      "rit": 1579,
      "Ø³Ø¨Ø¨": 1580,
      "ta": 1581,
      "ution": 1582,
      "Ġknow": 1583,
      "ident": 1584,
      "ÙĦÙĬÙĦ": 1585,
      "ÙĩÙħØ§": 1586,
      "ix": 1587,
      "Ø´Ùģ": 1588,
      "15": 1589,
      "ĠØ¹ÙĦ": 1590,
      "Ġfl": 1591,
      "Ġform": 1592,
      "ØŃØ¯Ø«": 1593,
      "oy": 1594,
      "ĠØŃÙĪÙĦ": 1595,
      "Ġneed": 1596,
      "Ø§Ø³ÙĬ": 1597,
      "ĠØ§ÙĦØ£ÙĪÙĦ": 1598,
      "](": 1599,
      "ffect": 1600,
      "ollow": 1601,
      "ĠÙĬØ¯": 1602,
      "ÙĪØ·": 1603,
      "type": 1604,
      "ØªÙĤ": 1605,
      "ĠØ£Ø®": 1606,
      "Ø§ÙĤØªØµ": 1607,
      "ĠØ®Ø·": 1608,
      "ĠØ§ÙĦØ°ÙĬÙĨ": 1609,
      "ĠÙĪØ±": 1610,
      "Ø§Ø±ÙĬØ©": 1611,
      "13": 1612,
      "ØµØ¯": 1613,
      "ĠØ¯ÙĪÙĦ": 1614,
      "ĠÙħØ¨": 1615,
      "Ġback": 1616,
      "rough": 1617,
      "Ø¹ÙħØ§ÙĦ": 1618,
      "Ġcell": 1619,
      "ĠØ¹Ø¯Ø¯": 1620,
      "ØªÙĥ": 1621,
      "Ġinclud": 1622,
      "Ġac": 1623,
      "ÙĪØ¯Ø©": 1624,
      "ex": 1625,
      "eg": 1626,
      "ĠØ£Ø¯": 1627,
      "Ġuse": 1628,
      "Ø®Ø¯Ø§Ùħ": 1629,
      "ĠØ¨Ø¹": 1630,
      "ÙĪÙĩ": 1631,
      ".,": 1632,
      "ĠØ´ÙĬ": 1633,
      "ØªØ§Ø¨": 1634,
      "ĠØªØ·": 1635,
      "ĠØªÙģ": 1636,
      "ĠØ§ÙĦØªØŃ": 1637,
      "}\\": 1638,
      "ning": 1639,
      "Ġused": 1640,
      "ĠØ§ÙĦØªØ¬": 1641,
      "Ġi": 1642,
      "14": 1643,
      "Ġsur": 1644,
      "Ġresult": 1645,
      "ĠØ§ÙĦÙħÙħ": 1646,
      "tern": 1647,
      "ange": 1648,
      "ÙĨÙī": 1649,
      "ÙģØ¶ÙĦ": 1650,
      "Ġsupp": 1651,
      "ÙĪØ§Ø¡": 1652,
      "ĠÙĦØ¯": 1653,
      "ize": 1654,
      "Ø±ÙĬÙĥ": 1655,
      "ØªØ§Ø¬": 1656,
      "ĠØ¯ÙĪÙĨ": 1657,
      "Ġshow": 1658,
      "fore": 1659,
      "Ġ\\[": 1660,
      "ible": 1661,
      "iel": 1662,
      "16": 1663,
      "als": 1664,
      "cept": 1665,
      "Ø±ÙĪØ¹": 1666,
      "Ø§Ø±Ø³": 1667,
      "ÙħØ§ÙĨ": 1668,
      "Ġsm": 1669,
      "){": 1670,
      "ĠÙĦØŃ": 1671,
      "ĠØ³ÙĨ": 1672,
      "ĠÙħÙħ": 1673,
      "Ø§Ø¯Ø±": 1674,
      "Ġ14": 1675,
      "ĠØ§ÙĦØ¹Ø±Ø¨ÙĬØ©": 1676,
      "ĠÙĦÙĦØª": 1677,
      "Ġnum": 1678,
      "fr": 1679,
      "Ø§Ø®ÙĦ": 1680,
      "wn": 1681,
      "right": 1682,
      "ĠØ§ÙĦÙħØªØŃØ¯Ø©": 1683,
      "Ø§ÙĦØŃ": 1684,
      "Ø³Ø·ÙĬÙĨ": 1685,
      "ÙĬÙħØ©": 1686,
      "ÙĬÙĤ": 1687,
      "ĠÙĪØ£ÙĨ": 1688,
      "Ġsee": 1689,
      "to": 1690,
      "ew": 1691,
      "ited": 1692,
      "ĠÙĦÙĥ": 1693,
      "ĠÙħÙĨØ°": 1694,
      "ĠÙĪÙĥØ§ÙĨ": 1695,
      "ĠØ§ÙĦÙĤØ±": 1696,
      "ĠØ§ÙĦØ£Ø®": 1697,
      "ĠØ¨Ø¥": 1698,
      "ĠØ§ÙĦÙĪÙĤ": 1699,
      "fig": 1700,
      "Ġdist": 1701,
      "ble": 1702,
      "ments": 1703,
      "Ġspec": 1704,
      "ÙĪÙĦÙī": 1705,
      "ĠØ§ÙĦØ³Ø¹ÙĪØ¯": 1706,
      "Ġvar": 1707,
      "Ġthrough": 1708,
      "ĠØ§ÙĦØ³ÙĦ": 1709,
      "Ø·Ùģ": 1710,
      "Ġmost": 1711,
      "ER": 1712,
      "ĠØŃÙĤ": 1713,
      "cy": 1714,
      "Ġfollow": 1715,
      "18": 1716,
      "li": 1717,
      "Ġcor": 1718,
      "its": 1719,
      "Ġdata": 1720,
      "ĊĠĠĠĠĠĠĠĠĠĠĠ": 1721,
      "Ø±ØŃ": 1722,
      "Ġsim": 1723,
      "ÙĥØ¯": 1724,
      "Ġpeople": 1725,
      "uring": 1726,
      "ctions": 1727,
      "Ġshould": 1728,
      "ØªÙħØ¹": 1729,
      "ĠØ§ÙĦØ§": 1730,
      "ues": 1731,
      "ull": 1732,
      "ĠÙĪÙĩÙĬ": 1733,
      "ourt": 1734,
      "Ġagain": 1735,
      "Ø¶Ø±": 1736,
      "ins": 1737,
      "ĠÙħÙĦÙĬ": 1738,
      "ĠØ§ÙĦØ§Ø³": 1739,
      "Ø§ÙĦØ¨": 1740,
      "ĠØªÙĥÙĪÙĨ": 1741,
      "ruct": 1742,
      "ĠØ¹Ø¨Ø±": 1743,
      "ÙħØ§ÙĦ": 1744,
      "ined": 1745,
      "ublic": 1746,
      "ics": 1747,
      "Ġfact": 1748,
      "Ø§ØªÙĩ": 1749,
      "ÙģØ§ÙĤ": 1750,
      "Ġty": 1751,
      "ÙĬØ¯Ø©": 1752,
      "Ø¬Ø¯": 1753,
      "Ø§Ø¯ÙĬØ©": 1754,
      "ÙĦØ³Ø·ÙĬÙĨ": 1755,
      ",\"": 1756,
      "ever": 1757,
      "Ø±Ø§ÙĤ": 1758,
      "ĠÙĪØ§ÙĦØ¹": 1759,
      "ĠØ¹ÙĦÙĬÙĩØ§": 1760,
      "Ġ:": 1761,
      "ĠØªÙĦÙĥ": 1762,
      "ract": 1763,
      "Ġwell": 1764,
      "Ø¹Ø§Ø±": 1765,
      "ÙĤØ¨": 1766,
      "ĠÙĬØ´": 1767,
      "Ø±Ø¨ÙĬØ©": 1768,
      "ures": 1769,
      "Ø§Ø¨Ø¹": 1770,
      "ÙĪÙħØ§Øª": 1771,
      "Ø¯ÙĬØ«": 1772,
      "other": 1773,
      "ĠÐ": 1774,
      "Ø§ØµÙĦ": 1775,
      "uch": 1776,
      "ĠØ¢Ø®Ø±": 1777,
      "Ġclass": 1778,
      "inal": 1779,
      "ms": 1780,
      "ØŃÙĨ": 1781,
      "Ġ;": 1782,
      "ĠØ£Ø´": 1783,
      "ĠØ±Ø³": 1784,
      "17": 1785,
      "30": 1786,
      "Ġend": 1787,
      "Ø·Ø§Ø¹": 1788,
      "Ø¯Ø§Ø±Ø©": 1789,
      "Ġusing": 1790,
      "Ġsystem": 1791,
      "ÙĩÙĬ": 1792,
      "Ġwant": 1793,
      "ax": 1794,
      "ĠØ¯Ø±": 1795,
      "ĠÙĦØ¥": 1796,
      "50": 1797,
      "Ġent": 1798,
      "ĠÙħÙĨÙĩØ§": 1799,
      "Ġbecause": 1800,
      "ĠÙĪØ¯": 1801,
      "ÙĤÙĪÙĦ": 1802,
      "Ċĉ": 1803,
      "Ø§ÙĤØ¹": 1804,
      "ÙħØ³": 1805,
      "Ġinst": 1806,
      "ities": 1807,
      "ĠØ£Ø®Ø±Ùī": 1808,
      "Ġprodu": 1809,
      "Ċĉĉ": 1810,
      "ĠØ§ÙĦÙĪØ²": 1811,
      "St": 1812,
      "ĠÙĬØ³": 1813,
      "ateg": 1814,
      "ĠØ£ÙĪÙĦ": 1815,
      "ement": 1816,
      "oup": 1817,
      "ĠØ¨Ø·": 1818,
      "Ġright": 1819,
      "pos": 1820,
      "Ø¶Ø§Ùģ": 1821,
      "ØºÙħ": 1822,
      "Ø°ÙĥØ±": 1823,
      "ĠSe": 1824,
      "err": 1825,
      "ĠÙĦÙĦØ£": 1826,
      "Ø§Ø¦Ø±": 1827,
      "ÙĪÙĬØ±": 1828,
      "\"}": 1829,
      "ox": 1830,
      "ĠĠĠĠĠĠ": 1831,
      "ield": 1832,
      "ĠØ§ÙĦØ§ØŃ": 1833,
      "Ġ16": 1834,
      "ÙħÙĪ": 1835,
      "Ø®Ø·": 1836,
      "Ġgener": 1837,
      "ward": 1838,
      "Ġrequ": 1839,
      "ational": 1840,
      "ars": 1841,
      "))": 1842,
      "ower": 1843,
      "ily": 1844,
      "ĠÙģÙĤØ·": 1845,
      "ĠÙĪÙĤØ§ÙĦ": 1846,
      "ĠØ§ÙĦØ¥Ø³ÙĦØ§Ùħ": 1847,
      "Ø²ÙĬ": 1848,
      "ĠÙĪØ´": 1849,
      "ĠØªØ³Øª": 1850,
      "sc": 1851,
      "Ø±ÙĥØ§Øª": 1852,
      "Ø£Ø©": 1853,
      "arg": 1854,
      "Ġext": 1855,
      "ÙĬÙģØ©": 1856,
      "Ġ[@": 1857,
      "ized": 1858,
      "Ã¤": 1859,
      "Ġeach": 1860,
      "Ġlook": 1861,
      "imes": 1862,
      "ĠØ§ÙĦØµØŃ": 1863,
      "Ø¨Ø¹": 1864,
      "ĠØ§ÙĦØ§Ùħ": 1865,
      "ool": 1866,
      "Ġhigh": 1867,
      "ful": 1868,
      "ĠØ§ÙĦØ±ÙĬ": 1869,
      "--------------------------------": 1870,
      "Ġeven": 1871,
      "cond": 1872,
      "Ġ13": 1873,
      "ĠÙħÙĦ": 1874,
      "uc": 1875,
      "ĠØ§ÙĦÙģØ±": 1876,
      "Ġconst": 1877,
      "Ø²ÙĬØ¯": 1878,
      "ÙĬØ·": 1879,
      "22": 1880,
      "ÙħÙĬØ©": 1881,
      "Ġnow": 1882,
      "Ø¬ÙĨ": 1883,
      "Ø¸ÙĬÙħ": 1884,
      "IN": 1885,
      "Ġdifferent": 1886,
      "ÙĬØ±Ø§": 1887,
      "ÙĨØ§ÙħØ¬": 1888,
      "Ġap": 1889,
      "Ø¶Ø§ÙģØ©": 1890,
      "Ø²ÙĦ": 1891,
      "ĠÙĪØ§ÙĨ": 1892,
      "ÙĪØ§Ø¨": 1893,
      "hes": 1894,
      "ÙĬØ±Ø§ÙĨ": 1895,
      "Ġel": 1896,
      "]{": 1897,
      "Ġmin": 1898,
      "ĊĠĠĠĠĠĠĠĠĠĠĠĠĠĠĠ": 1899,
      "ork": 1900,
      "Th": 1901,
      "let": 1902,
      "ĠÙĦÙĬØ³": 1903,
      ")$": 1904,
      "ÙģØ§": 1905,
      "ically": 1906,
      "Ø§ÙĨØ¨": 1907,
      "Ø¬ÙħÙĪØ¹Ø©": 1908,
      "ØºÙĬ": 1909,
      "Ø§ÙĦÙī": 1910,
      "ĠÙĪØ°ÙĦÙĥ": 1911,
      "Ø¨Ø§Ø¨": 1912,
      "sp": 1913,
      "Ø°ÙĬ": 1914,
      "ĠÙĨÙĤ": 1915,
      "....": 1916,
      "ÙĩØ§Ø¨": 1917,
      "Ġpar": 1918,
      "Ø±ÙģØ©": 1919,
      "Ø·Ø§Ø±": 1920,
      "ØªÙĬÙĨ": 1921,
      "Ġlong": 1922,
      "ĠØ§ÙĪ": 1923,
      "Ø«Ùħ": 1924,
      "Ġway": 1925,
      "ife": 1926,
      "(\\": 1927,
      "Ø§ÙĬ": 1928,
      "Ġ199": 1929,
      "ÙĪØ¶ÙĪØ¹": 1930,
      "ale": 1931,
      "Ġcall": 1932,
      "Ġevery": 1933,
      "25": 1934,
      "ĠÙĪØ³ÙĦÙħ": 1935,
      "Ġke": 1936,
      "Ġeffect": 1937,
      "Ø§Ø¨ÙĤ": 1938,
      "riv": 1939,
      "ĊĠĠĠĠĠ": 1940,
      "Ġ17": 1941,
      "ĠÙĪØ§ÙĦØªÙĬ": 1942,
      "Ġbu": 1943,
      "led": 1944,
      "Ġdi": 1945,
      "ĠØ¨Ùĥ": 1946,
      "ĠØ§ÙĦØŃÙĬ": 1947,
      "ØŃØ§Ø¯": 1948,
      "ĠÙħØ¬ÙĦØ³": 1949,
      "Ġdown": 1950,
      "Ġ11": 1951,
      "Ġmake": 1952,
      "pr": 1953,
      "ĠØªØŃØª": 1954,
      "Ġdon": 1955,
      "ĠØ§ÙĦÙĨØ§Ø³": 1956,
      "Ø¬ÙĨØ©": 1957,
      "Ġhere": 1958,
      "ator": 1959,
      "put": 1960,
      "ĠØ§ÙĦØ¹Ø±Ø§ÙĤ": 1961,
      "Ġbefore": 1962,
      "ĠÃ": 1963,
      "Ø§Ø°Ø§": 1964,
      "ĠÙĥØ¨ÙĬØ±": 1965,
      "Ġsame": 1966,
      "ĠØ§ÙĦØ¹ÙĦ": 1967,
      "ĠØ¨ÙħØ§": 1968,
      "Ġdoes": 1969,
      "ince": 1970,
      "air": 1971,
      "],": 1972,
      "vent": 1973,
      "Ġplay": 1974,
      "ĠØŃØ³": 1975,
      "ĠÙģØª": 1976,
      "ting": 1977,
      "Ġtest": 1978,
      "ĠØµÙĦÙī": 1979,
      "way": 1980,
      "ĠØ´Ø®Øµ": 1981,
      "ĠØ§ÙĦØŃØ±": 1982,
      "ĠØ¨ÙĤ": 1983,
      "ÙĪÙĤÙģ": 1984,
      "ĠÙĪØ§ÙĦØ¥": 1985,
      "ĠØ¨Ø§ÙĦØª": 1986,
      "Ġyears": 1987,
      "ĠØ§Ø¨ÙĨ": 1988,
      "arch": 1989,
      "ĠÙĤØ±": 1990,
      "ÙĤÙĬÙĤØ©": 1991,
      "ĠÙħÙĥ": 1992,
      "ÙĩØ¯Ùģ": 1993,
      "Ġvery": 1994,
      "Ø¨ÙĤ": 1995,
      "rm": 1996,
      "Ġcase": 1997,
      "Ġdec": 1998,
      "ÙĪØ£": 1999,
      "Ø§ÙħØ¹Ø©": 2000,
      "oci": 2001,
      "Ġreturn": 2002,
      "ared": 2003,
      "ĠØ´Ø±ÙĥØ©": 2004,
      "Ġcur": 2005,
      "Ø§Ø¨ÙĦ": 2006,
      "ants": 2007,
      "ines": 2008,
      "Ġboth": 2009,
      "ĠØ§ÙĦØ´ÙĬ": 2010,
      "ÙĨØ§ÙĨ": 2011,
      "Ġfound": 2012,
      "ÙĬØ§Ùħ": 2013,
      "read": 2014,
      "ĠØ§ÙĦØ¹ÙĦÙħ": 2015,
      "ĠØ§ÙĦØ´Ø±": 2016,
      "Ø²Ø¨": 2017,
      "ng": 2018,
      "](#": 2019,
      "Ø§Ø¦Ø¯": 2020,
      "ym": 2021,
      "rol": 2022,
      "Ġmat": 2023,
      "ÙĪÙĨÙĬ": 2024,
      "Ġmed": 2025,
      "âĢĶ": 2026,
      "ĠØ¨ÙĬ": 2027,
      "ĠØ§ÙĦØ¹Ø§ÙħØ©": 2028,
      "Ġop": 2029,
      "ĠØ§ÙĦØ£ÙħØ±": 2030,
      "Ġfind": 2031,
      "ĠĠĠĠĠĠĠĠĠĠĠĠĠĠĠĠĠĠĠĠĠĠĠĠĠĠĠĠĠĠĠĠĠĠĠĠĠĠĠĠĠĠĠĠĠĠĠĠĠĠĠĠĠĠĠĠĠĠĠĠĠĠĠĠ": 2032,
      "Ġbel": 2033,
      "ann": 2034,
      "ĠØ§ÙĦØ§Ø¬ØªÙħØ§Ø¹": 2035,
      "Ġloc": 2036,
      "Ġinte": 2037,
      "Ġstat": 2038,
      "ØªØ¨Ø±": 2039,
      "Ġmon": 2040,
      "ĠÙģÙĤØ¯": 2041,
      "Ø´ÙĬ": 2042,
      "ÙĪØ«": 2043,
      "ript": 2044,
      "rest": 2045,
      "Ġpartic": 2046,
      "ÙĨØ¹": 2047,
      "Ġcar": 2048,
      "Ġest": 2049,
      "Ġaut": 2050,
      "ave": 2051,
      "Ġthose": 2052,
      "ÙĤØ§ÙĦ": 2053,
      "Ġpoint": 2054,
      "ĠÙħÙĪÙĤØ¹": 2055,
      "ØºØ©": 2056,
      "Ø¶Ø§Ø¡": 2057,
      "ĠÙĪØ§ÙĦØŃ": 2058,
      "Ø¨ÙĬØ±Ø©": 2059,
      "Ġtra": 2060,
      "Ġmem": 2061,
      "24": 2062,
      "ĠØ§ÙĦÙħØº": 2063,
      "ÙĬØ§Ø¯Ø©": 2064,
      "ients": 2065,
      "Ø²ÙĬØ²": 2066,
      "ĠÙĪØ§ÙĦØ¯": 2067,
      "ĠCom": 2068,
      "Ġmany": 2069,
      "ĠØ§ÙĦØ¥ÙĨØ³": 2070,
      "ĠØ§ÙĦÙħÙĩ": 2071,
      "ages": 2072,
      "Ġanal": 2073,
      "ute": 2074,
      "velop": 2075,
      "Ġser": 2076,
      "frac": 2077,
      "ĠØ§ÙĦÙĪÙĤØª": 2078,
      "Ġbeing": 2079,
      "_{\\": 2080,
      "ĠÙĬØ¬Ø¨": 2081,
      "ĠAl": 2082,
      "Ð¾": 2083,
      "ĠÙĨØ³": 2084,
      "ank": 2085,
      "ÙĪÙĬÙĦ": 2086,
      "aint": 2087,
      "Ø¨Ø·": 2088,
      "ĠÙħÙĨÙĩ": 2089,
      "Ġhand": 2090,
      "Ġmade": 2091,
      "ĠØŃØ§ÙĦ": 2092,
      "****": 2093,
      "Ø¹ÙĦØ§Ùħ": 2094,
      "ÙĥØ±ÙĬ": 2095,
      "ÙĦØ§Øª": 2096,
      "Ġincre": 2097,
      "ĠâĢĵ": 2098,
      "ethod": 2099,
      "Ø§Ø¹Ø§Øª": 2100,
      "Ø§ÙĪÙĦ": 2101,
      "Ø±Ùī": 2102,
      "ÙĦÙĬØ§Øª": 2103,
      "ON": 2104,
      "Ġet": 2105,
      "ĠÙĪÙĦÙĬ": 2106,
      "ason": 2107,
      "ĠØ§ÙĦØ¯ÙĪÙĦØ©": 2108,
      "eng": 2109,
      "Ġ30": 2110,
      "ĠØ§ÙĦØªÙĪ": 2111,
      "els": 2112,
      "ĠØ³ÙĦ": 2113,
      "cent": 2114,
      "Ġpers": 2115,
      "\":": 2116,
      "Ø¹Ø§Ø¯Ø©": 2117,
      "upp": 2118,
      "Ġche": 2119,
      "ĠÙĪØµ": 2120,
      "Ø²Ùħ": 2121,
      "Ø§Ø¯Ø§Øª": 2122,
      "Ġgu": 2123,
      "It": 2124,
      "ĠØ·Ø±ÙĬÙĤ": 2125,
      "ĠÙĦØ¹": 2126,
      "ĠØ§ÙĦØ§Ø®": 2127,
      "ĠØµØŃ": 2128,
      "Ø¨ÙĬÙĨ": 2129,
      "par": 2130,
      "Ġfil": 2131,
      "\">": 2132,
      "ature": 2133,
      "ĠÙħÙħØ§": 2134,
      "An": 2135,
      "AT": 2136,
      "Ġchar": 2137,
      "ĠØ¹ÙĨØ¯ÙħØ§": 2138,
      "____": 2139,
      "over": 2140,
      "aking": 2141,
      "ven": 2142,
      "Ø§Ø¦ÙĬÙĦ": 2143,
      "yl": 2144,
      "Ø¤ÙĪÙĦ": 2145,
      "Ġdire": 2146,
      "ah": 2147,
      "Ø¬Ø²": 2148,
      "Ø³Ø§Øª": 2149,
      "Ġfunction": 2150,
      "Ø¶Ùħ": 2151,
      "ÙĩÙĪØ±": 2152,
      "ases": 2153,
      "Ġnumber": 2154,
      "text": 2155,
      "Ġexam": 2156,
      "ÙĤÙħ": 2157,
      "ĠÙĪØ¥ÙĨ": 2158,
      "ĠØ§ÙĦØ¯ÙĬÙĨ": 2159,
      "ĠØ§ÙĦØ¥ÙĨ": 2160,
      "of": 2161,
      "ĠÙĦÙĪ": 2162,
      "32": 2163,
      "ĠØ£ÙħØ§Ùħ": 2164,
      "Ġexper": 2165,
      "sh": 2166,
      "ĠØ§Ùĥ": 2167,
      "ĠØ§ÙĦØ¹Ùħ": 2168,
      "Ø±Ø¨Ø¹": 2169,
      "Ġz": 2170,
      "Ø§ÙħØ§": 2171,
      "Ø±ÙĬØ¨": 2172,
      "Ġresp": 2173,
      "ĠÂ": 2174,
      "ism": 2175,
      "Ø¶Ø©": 2176,
      "Ġthink": 2177,
      "ĠØ§ÙĤ": 2178,
      "ĠØ¨Ø³Ø¨Ø¨": 2179,
      "ĠØ§ÙĦØ¬Ø²": 2180,
      "ĠÙĪÙħØ§": 2181,
      "Ø¨ÙĬÙĤ": 2182,
      "Ġappro": 2183,
      "Ġra": 2184,
      "val": 2185,
      "gan": 2186,
      "min": 2187,
      "200": 2188,
      "ĠØ§ÙĦØŃÙĥÙĪÙħØ©": 2189,
      "cal": 2190,
      "ÙĤØª": 2191,
      "Ġgood": 2192,
      "ash": 2193,
      "->": 2194,
      "ĠØ§ÙĦÙħØ®": 2195,
      "ĠØ¬ÙĨ": 2196,
      "Ġ@": 2197,
      "()": 2198,
      "ner": 2199,
      "ĠFor": 2200,
      "ØºÙĦ": 2201,
      "Ġtri": 2202,
      "day": 2203,
      "rence": 2204,
      "ody": 2205,
      "Ø§ÙĨÙĬØ§": 2206,
      "]\\]": 2207,
      "ather": 2208,
      "Ġ\".": 2209,
      "Ø¬ÙĬÙĦ": 2210,
      "ĊĠĠĠĠĠĠĠĠĠĠĠĠĠĠĠĠ": 2211,
      "Ø¬Ø±Ø§Ø¡": 2212,
      "ĠØ¶Ø¯": 2213,
      "Ġown": 2214,
      "ĠØ§ÙĦØ¯Ø±": 2215,
      "set": 2216,
      "ĠÙĪØ®": 2217,
      "Ġwhile": 2218,
      "cer": 2219,
      "]{}": 2220,
      "ĠRe": 2221,
      "Ø§Ø±Ùĥ": 2222,
      "ĠØ§ÙĦØ§ÙĤØªØµ": 2223,
      "Ø¯Ø§ÙĪÙĦ": 2224,
      "ĠØ£ÙĨÙĩØ§": 2225,
      "Ġmuch": 2226,
      "app": 2227,
      "Ġstr": 2228,
      "Ġsol": 2229,
      "ĠØ§ÙĦØ®Ø·": 2230,
      "ret": 2231,
      "ĠÙĪØ§ÙĦÙĨ": 2232,
      "ĠØ§ÙĦÙĤØ¯": 2233,
      "âĢī": 2234,
      "Ð°": 2235,
      "ĠØ§ÙĦØ§Ø¹": 2236,
      "Ø§ÙĦØ«": 2237,
      "tr": 2238,
      "Ø§ÙĩØ¯": 2239,
      "Ġ#": 2240,
      "Ø¸ÙħØ©": 2241,
      "Ġhel": 2242,
      "$\\": 2243,
      "ought": 2244,
      "ĠØ¨Ø§ÙĦØ¥": 2245,
      "Ø±ÙĬÙĤØ©": 2246,
      "ÙĤØ¯ÙĬÙħ": 2247,
      "ĠÙģÙĬÙħØ§": 2248,
      "ĠÙģÙĩ": 2249,
      "ĠØ§ÙĦØ¬ÙĨ": 2250,
      "Ġrep": 2251,
      "Ġprote": 2252,
      "ved": 2253,
      "ĠÙĪÙĦÙħ": 2254,
      "ĠØ¹Ø¨": 2255,
      "ense": 2256,
      "ained": 2257,
      "ØªÙħØ±": 2258,
      "Ġins": 2259,
      "ually": 2260,
      "ĠÙĪØ·": 2261,
      "ĠÙĬØ§": 2262,
      "ĠØ°Ø§Øª": 2263,
      "ÙħÙĬÙĨ": 2264,
      "Ø¶ÙĬ": 2265,
      "ĠØ§ÙĦØ¥Ùħ": 2266,
      "}{": 2267,
      "Ġthree": 2268,
      "ired": 2269,
      "ĠAnd": 2270,
      "Ġprocess": 2271,
      "ĠØ§ÙĦØ¢ÙĨ": 2272,
      "fl": 2273,
      "ÙĥØªÙĪØ±": 2274,
      "We": 2275,
      "ified": 2276,
      "Ø¹Ø§Øª": 2277,
      "any": 2278,
      "Ø±ÙĪÙģ": 2279,
      "ĠØ«ÙĦØ§Ø«": 2280,
      "ØŃÙĤ": 2281,
      "ively": 2282,
      "ÙĤØ§Ø¡": 2283,
      "Ġ24": 2284,
      "ÙĦÙĥØ©": 2285,
      "Ġread": 2286,
      "Ġpresent": 2287,
      "ĠØ§ÙĦØ£ÙĪÙĦÙī": 2288,
      "Ø§ÙĦÙģ": 2289,
      "amp": 2290,
      "Ġsecond": 2291,
      "be": 2292,
      "land": 2293,
      "ĠØ§ÙĦØ³Ø¹ÙĪØ¯ÙĬØ©": 2294,
      "ĠPro": 2295,
      "://": 2296,
      "ÙĤØ¨ÙĦ": 2297,
      "ĠØªØ±Ùĥ": 2298,
      "Ø§ÙĦÙĥ": 2299,
      "Ġserv": 2300,
      "ĠØ¬Ùĩ": 2301,
      "ĠØ§ÙĦØ£ÙĨ": 2302,
      "gg": 2303,
      "ĠØ§ÙĦØªÙĤ": 2304,
      "ĠØ£Ø¨ÙĪ": 2305,
      "80": 2306,
      "ĠÙħØ®ØªÙĦÙģ": 2307,
      "Ġstart": 2308,
      "Ġ25": 2309,
      "ØŃÙĦØ©": 2310,
      "ĠØ§ÙĦØ£ÙħÙĨ": 2311,
      "ness": 2312,
      "arly": 2313,
      "Ø³Ø§ÙĨ": 2314,
      "oid": 2315,
      "ices": 2316,
      "ĠAs": 2317,
      "Ġdisc": 2318,
      "ES": 2319,
      "ton": 2320,
      "formation": 2321,
      "Ġgiv": 2322,
      "AR": 2323,
      "alk": 2324,
      "ĠØ¯ÙĪØ±": 2325,
      "ression": 2326,
      "Ġref": 2327,
      "Ø¹ÙĬØ¯": 2328,
      "ĠØ§ÙĦØ«Ø§ÙĨÙĬ": 2329,
      "Ø¸ÙĩØ±": 2330,
      "ØºØ·": 2331,
      "Ø§Ø¹Ø¯Ø©": 2332,
      "ØªØ¹": 2333,
      "view": 2334,
      "ĠØ¨ÙĪ": 2335,
      "ision": 2336,
      "ĠØŃÙĬÙĨ": 2337,
      "ĠØ£Ø¬ÙĦ": 2338,
      "ĠØ´Ø±": 2339,
      "Ø§Ø³Ùħ": 2340,
      "Ġdevelop": 2341,
      "Ġsom": 2342,
      "Ġlevel": 2343,
      "ĠÙĪØ¶Ø¹": 2344,
      "Ø®Ø°": 2345,
      "Ġstudy": 2346,
      "ØºØ±": 2347,
      "ĠØ¹Ø¯Ùħ": 2348,
      "Ġx": 2349,
      "Ġ\\[[@": 2350,
      "23": 2351,
      "ĠØ¬Ø¯Ø§": 2352,
      "br": 2353,
      "ĠØ®Ø§ØµØ©": 2354,
      "ĠØªÙĪ": 2355,
      "ÙģØ§Ø¹": 2356,
      "Ø§Ø¦ÙĤ": 2357,
      "line": 2358,
      "ĠÙĪÙĩØ°Ø§": 2359,
      "Ġduring": 2360,
      "What": 2361,
      "ÙĪÙĨØ§": 2362,
      "Ø§ÙĦØ¯": 2363,
      "ĠÙĥÙĬÙģ": 2364,
      "ĠÙĦØ¯ÙĬ": 2365,
      "Ġbr": 2366,
      "ĠÙĪÙĤØª": 2367,
      "Ø§ÙĩØ±Ø©": 2368,
      "ouse": 2369,
      "ÙģÙĤ": 2370,
      "ÙģÙĬØ°": 2371,
      "Ø§ØµØ±": 2372,
      "Ðµ": 2373,
      "ĠØ³Ùħ": 2374,
      "ĠØ§ÙĦÙħØ¨": 2375,
      "alth": 2376,
      "ier": 2377,
      "ĠÙĪØ§ØŃØ¯": 2378,
      "ĠØ§ÙĦØ®Ø§ØµØ©": 2379,
      "self": 2380,
      "ĠØ§ÙĦØ´Ø¹Ø¨": 2381,
      "ategory": 2382,
      "ams": 2383,
      "cul": 2384,
      "ÙĬØ§Ùĩ": 2385,
      "ĠÙĪØ§Ø³Øª": 2386,
      "man": 2387,
      "ĠÙĦÙĦØŃ": 2388,
      "ole": 2389,
      "left": 2390,
      "oh": 2391,
      "med": 2392,
      "40": 2393,
      "ĠÙħØ®": 2394,
      "Ġposs": 2395,
      "::": 2396,
      "Ø§ÙĬØ©": 2397,
      "Ø§Ø¦Ùħ": 2398,
      "tt": 2399,
      "ĠÙħØ¯ÙĬÙĨØ©": 2400,
      "Ø¨ÙĦØº": 2401,
      "uss": 2402,
      "ĠØ§ÙĦÙģÙĦØ³Ø·ÙĬÙĨ": 2403,
      "Ø§Ø·ÙĤ": 2404,
      "Ġwithout": 2405,
      "ØªÙĩÙħ": 2406,
      "ĠØªÙĥ": 2407,
      "Ġmet": 2408,
      "Ġreport": 2409,
      "ww": 2410,
      "ĠØ£Ø±": 2411,
      "Ġequ": 2412,
      "igned": 2413,
      "âĢĵ": 2414,
      "ĠØ¯Ø§Ø®ÙĦ": 2415,
      "Ġfr": 2416,
      "NA": 2417,
      "ument": 2418,
      "ĠLet": 2419,
      "ality": 2420,
      "ĠBut": 2421,
      "ÙħÙĦØ©": 2422,
      "Ø§Ø¦Ø¨": 2423,
      "Ġ**": 2424,
      "Ġav": 2425,
      "Ġdep": 2426,
      "CR": 2427,
      "ĠØ¹ÙĨÙĩ": 2428,
      "az": 2429,
      "ters": 2430,
      "ØŃÙħ": 2431,
      "Ġterm": 2432,
      "ization": 2433,
      "Ø§Ø¦Ùģ": 2434,
      "ÙĪØ±ÙĬØ§": 2435,
      "til": 2436,
      "ĠØ¹ÙĦÙħ": 2437,
      "Ġcourt": 2438,
      "ists": 2439,
      "Ø§Ø¸": 2440,
      "aw": 2441,
      "Ġgl": 2442,
      "Ø§ÙĤØ§Øª": 2443,
      "ane": 2444,
      "ĠØ§ÙĦÙħÙĦÙĥ": 2445,
      "ĠØ¬Ø¯ÙĬØ¯Ø©": 2446,
      "ĠÙĨØª": 2447,
      "ÙĪØ¬Ø¯": 2448,
      "28": 2449,
      "Ġnon": 2450,
      "raph": 2451,
      "ĠØ§ÙĦØ¬Ùĩ": 2452,
      ",\\": 2453,
      "Ø§ÙģÙĤ": 2454,
      "ĠØ§ÙĦÙħØ±ÙĥØ²": 2455,
      "Ġsupport": 2456,
      "Ġpublic": 2457,
      "ider": 2458,
      "ĠAr": 2459,
      "Ġant": 2460,
      "ĠÙĪØ¬ÙĪØ¯": 2461,
      "ÙĪØ¡": 2462,
      "Ġperform": 2463,
      "Ø³ÙĬÙĨ": 2464,
      "ĠØ§ÙĦÙħØ´Ø§Ø±": 2465,
      "He": 2466,
      "Ø¯ÙĬØ©": 2467,
      "ĠÙĬØ¤": 2468,
      "ffic": 2469,
      "ross": 2470,
      "ĠIf": 2471,
      "ĠØ§Ùģ": 2472,
      "ĠÙĬØ±": 2473,
      "Ġvalue": 2474,
      "ĠØ§ÙĦØ¹Ø¯ÙĬØ¯": 2475,
      "ÙĬØ§Ø±": 2476,
      "ÙĬØ¯Ø§": 2477,
      "lement": 2478,
      "ĠØ¬Ø²": 2479,
      "yn": 2480,
      "Ġstill": 2481,
      "ĠØ£ÙħØ§": 2482,
      "ĠØ§ÙĦÙģØª": 2483,
      "26": 2484,
      "ÙĦØ§Ùģ": 2485,
      "ØµØŃ": 2486,
      "ĠØ§ÙĦØ®Ø§Ø±Ø¬": 2487,
      "Ġmethod": 2488,
      "ĠØŃØ§ÙĦØ©": 2489,
      "ĠÙĦÙĩÙħ": 2490,
      "Ġorder": 2491,
      "Ġsmall": 2492,
      "str": 2493,
      "ÙĪÙĦÙĩ": 2494,
      "Ġcre": 2495,
      "Ø¨Ø¯Ø£": 2496,
      "ĠHow": 2497,
      "ided": 2498,
      "27": 2499,
      "ĠØ£Ùģ": 2500,
      "Ġcells": 2501,
      "gen": 2502,
      "Ø§Ø±Ø¯": 2503,
      "ially": 2504,
      "ĠØ£Ø«": 2505,
      "$.": 2506,
      "Ġcent": 2507,
      "ĠØ£ÙĤ": 2508,
      "Ø§Ø¨Ø¹Ø©": 2509,
      "ĠØ§ÙĦÙĥØ«ÙĬØ±": 2510,
      "oad": 2511,
      "ĠÙĪØºÙĬØ±": 2512,
      "Ġsay": 2513,
      "ional": 2514,
      "ĠÙĪÙħØ¹": 2515,
      "dition": 2516,
      "Ġlet": 2517,
      "ĠØ¨Ø³": 2518,
      "ĠÙĩÙĦ": 2519,
      "Ø®Ø±Ø¬": 2520,
      "amb": 2521,
      "Ø§ÙĨØ§": 2522,
      "Ġstate": 2523,
      "ĠØ§ÙĦØªØµ": 2524,
      "ĠØ£Ø¨ÙĬ": 2525,
      "ĠNew": 2526,
      "Ø±ÙĬÙģ": 2527,
      "ÙĪØ³Ø·": 2528,
      "ĠÙĪØ²Ø§Ø±Ø©": 2529,
      "ĠÙĨØŃÙĪ": 2530,
      "ĠØ§ÙĦÙħØ§Ø¶ÙĬ": 2531,
      "21": 2532,
      "OR": 2533,
      "ĠÎ": 2534,
      "$,": 2535,
      "Ø§ÙģØ¸Ø©": 2536,
      "ving": 2537,
      "ger": 2538,
      "Ġpa": 2539,
      "anc": 2540,
      "ĠÙĪØ²ÙĬØ±": 2541,
      "ĠÙģØ¹": 2542,
      "Ġgroup": 2543,
      "ĠÙĥØ«ÙĬØ±": 2544,
      "Ġappe": 2545,
      "ĠØ§ÙĦÙħÙĨØ·ÙĤØ©": 2546,
      "ĠØ§ÙĦØ¸": 2547,
      "Ġhelp": 2548,
      "mathb": 2549,
      "ished": 2550,
      "ĠDe": 2551,
      "ĠØ¬Ø¯ÙĬØ¯": 2552,
      "ĠÙĬÙģ": 2553,
      "Ġcount": 2554,
      "ĠØ§ÙĦÙĤØ§ÙĨÙĪÙĨ": 2555,
      "aj": 2556,
      "ĠØ§ÙĦÙħÙĦ": 2557,
      "me": 2558,
      "ĠÙĦÙĦØ¹": 2559,
      "ĠQ": 2560,
      "Ġmust": 2561,
      "Ø³Ø±Ø§Ø¦ÙĬÙĦ": 2562,
      "ĠØŃØ±": 2563,
      "Ġpatients": 2564,
      "Ġed": 2565,
      "Ø§Ø¦ÙħØ©": 2566,
      "Ġ//": 2567,
      "meric": 2568,
      "ĠÙħØ±Ø©": 2569,
      "ĠØ£ÙĩÙħ": 2570,
      "Ġlast": 2571,
      "ĠÙĤØ§Ùħ": 2572,
      "EN": 2573,
      "ĠØ§Ø³ØªØ®Ø¯Ø§Ùħ": 2574,
      "Ġactiv": 2575,
      "ÙĦÙħØ©": 2576,
      "].": 2577,
      "Ġline": 2578,
      "Ø¬ÙħØ¹": 2579,
      "Ġagainst": 2580,
      "Ġfam": 2581,
      "Ġtake": 2582,
      "ĠØ£ÙģØ¶ÙĦ": 2583,
      "ĠÙĬÙĤÙĪÙĦ": 2584,
      "ds": 2585,
      "oot": 2586,
      "Ġday": 2587,
      "Ġdesc": 2588,
      "'m": 2589,
      "Ø·Ø¨": 2590,
      "ĠØ§ÙĦØ¹ÙĤ": 2591,
      "ĠÙĥØ¨ÙĬØ±Ø©": 2592,
      "ÙĪÙĦØ§ÙĬØ§Øª": 2593,
      "Ø±Ø¨Ø©": 2594,
      "ĠØ£ØŃÙħØ¯": 2595,
      "atic": 2596,
      "ĠØªØ¹Ø§ÙĦÙī": 2597,
      "hip": 2598,
      "ames": 2599,
      "Ø·ÙĦØ§ÙĤ": 2600,
      "ãĤ": 2601,
      "ron": 2602,
      "Ġlead": 2603,
      "Ġart": 2604,
      "ĠÙģÙĦ": 2605,
      "Ø¹Ø§ÙĪÙĨ": 2606,
      "ĠØ£Øº": 2607,
      "Ġcle": 2608,
      "Ġimport": 2609,
      "ĠÙĥÙĨØª": 2610,
      "ĠØ°ÙĥØ±": 2611,
      "Ø±ÙĬÙħ": 2612,
      "ĠZ": 2613,
      "ĠØ³ÙĨØ©": 2614,
      "ST": 2615,
      "You": 2616,
      "60": 2617,
      "Ġname": 2618,
      "ĠØ£ÙħØ±": 2619,
      "ÙĬÙĨÙĬ": 2620,
      "ĠØ§ÙĨØª": 2621,
      "ray": 2622,
      "',": 2623,
      "Ġfin": 2624,
      "ĠØ§ÙĦØ«ÙĦØ§Ø«": 2625,
      "Ġrun": 2626,
      "ĠØ§ÙĦÙħØ¬ØªÙħØ¹": 2627,
      "35": 2628,
      "ĠØ§ÙĦØªØ±": 2629,
      "ĠØ§Ø¬": 2630,
      "Ġwr": 2631,
      "ĠØ§ÙĦØ³ÙĦØ§Ùħ": 2632,
      "Ø¨Ø§Ø±Ø§Ø©": 2633,
      "ØŃØ§": 2634,
      "ĠØªØ§Ø±ÙĬØ®": 2635,
      "ĠÙħÙĩ": 2636,
      "ik": 2637,
      "ÙĪØ¨Ø©": 2638,
      "Ø§ÙģÙĬØ©": 2639,
      "irc": 2640,
      "ÙĪÙĬØª": 2641,
      "ulation": 2642,
      "que": 2643,
      "ĠÙħØ¬ÙħÙĪØ¹Ø©": 2644,
      "Ġoper": 2645,
      "29": 2646,
      "ĠØ§ÙĦØ¨ØŃ": 2647,
      "ĠYou": 2648,
      "Ø³Ø§Ø¡": 2649,
      "Ġchild": 2650,
      "ĠØ§ÙĦØªØ¹ÙĦÙĬÙħ": 2651,
      "ĠØ§ÙĦØªØ¯": 2652,
      "Ġexpl": 2653,
      "ĠØ¨Øµ": 2654,
      "ÙĩØ§ÙĬØ©": 2655,
      "chn": 2656,
      "Ø¨Ø§ØŃ": 2657,
      "ÙĪÙĨØ©": 2658,
      "ÙĩÙħØ©": 2659,
      "Ġdel": 2660,
      "ĠØªØŃØ¯": 2661,
      "ÙĥØ±Ø©": 2662,
      "Ø·Ø¹": 2663,
      "ÙĪÙħØ§": 2664,
      "Ġsignific": 2665,
      "ĠØ§ÙĦØ´ÙĬØ®": 2666,
      "ĠÙĪØ§ØŃØ¯Ø©": 2667,
      "ÙĪØ¬Ùĩ": 2668,
      "acter": 2669,
      "ĠØ§Ø´": 2670,
      "ek": 2671,
      "Ø·ÙģØ§ÙĦ": 2672,
      "ify": 2673,
      "Ø¯ÙħØ©": 2674,
      "ĠÙħÙĨØ·ÙĤØ©": 2675,
      "less": 2676,
      "Ġproble": 2677,
      "IT": 2678,
      "ĠÙģØ£": 2679,
      "ĠĊĊ": 2680,
      "ĠØ´ÙĬØ¡": 2681,
      "Re": 2682,
      "Ø·ÙĦØ¨": 2683,
      "rict": 2684,
      "Ġ2018": 2685,
      "Ġperson": 2686,
      "ĠØ¹ÙħØ±": 2687,
      "Ø§Ø¬Ø©": 2688,
      "ĠØ§ÙĦØ·Ø¨ÙĬ": 2689,
      "ĠØ§ÙĦÙĪØ·ÙĨÙĬ": 2690,
      "Category": 2691,
      "ĠØ¹ÙħÙĦÙĬØ©": 2692,
      "ĠÙĨØ¬": 2693,
      "ĠShe": 2694,
      "ability": 2695,
      "Ã¥": 2696,
      "ÑĤ": 2697,
      "Ø³ÙĥØ±": 2698,
      "ĠØ§ÙĦØ¹Ø±Ø¨ÙĬ": 2699,
      "ien": 2700,
      "ĠØªØ®": 2701,
      "idence": 2702,
      "ĠÙħÙģ": 2703,
      "ĠØ§ÙĦÙĨØ¸Ø§Ùħ": 2704,
      "ØªÙĪ": 2705,
      "ĠØ§ÙĦØ¥ÙĨØ³Ø§ÙĨ": 2706,
      "ĠØ¹Ø´Ø±": 2707,
      "ĠØŃÙĥ": 2708,
      "ĠÙħÙĦÙĬÙĪÙĨ": 2709,
      "34": 2710,
      "ĠØ£ÙĦÙģ": 2711,
      "ĠØ§ÙĦÙĦÙĬ": 2712,
      "\\[": 2713,
      "Ø§ÙģÙĬ": 2714,
      "ote": 2715,
      "ĠØ§ÙĦØ¨ÙĬ": 2716,
      "ĠÙĬØµ": 2717,
      "Ø§ØªÙĩØ§": 2718,
      "Ġquest": 2719,
      "ĠÙĪØ¹ÙĦÙī": 2720,
      "ium": 2721,
      "Ġ100": 2722,
      "Ġcontrol": 2723,
      "ĠØµÙģ": 2724,
      "ience": 2725,
      "Ġpur": 2726,
      "und": 2727,
      "Ø¹ÙĦÙĤ": 2728,
      "ĠØ§ÙĦØ±ÙĬØ§Ø¶": 2729,
      "ention": 2730,
      "ØªØ¨Ø§Ø±": 2731,
      "Ð¸": 2732,
      "Ġlife": 2733,
      "ĠØ§ÙĦØ¯ÙĥØªÙĪØ±": 2734,
      "aim": 2735,
      "ology": 2736,
      "ĠØ¥Ø°": 2737,
      "ĠØ§ÙĦØŃØ¯": 2738,
      "ivers": 2739,
      "Ġdirect": 2740,
      "Ġaround": 2741,
      "ĠĊ": 2742,
      "Ġdem": 2743,
      "Ø§Ø¯Ø±Ø©": 2744,
      ".âĢĿ": 2745,
      "orn": 2746,
      "Ġconf": 2747,
      "Ġhead": 2748,
      "Ġvari": 2749,
      "Ġstand": 2750,
      "Ø·ÙĦÙĤ": 2751,
      "64": 2752,
      "Ø±ÙĬØ·": 2753,
      "ĠØ§ÙĦØ¨ØŃØ±": 2754,
      "05": 2755,
      "!\"": 2756,
      "ĠÙĪØªØ¹": 2757,
      "ral": 2758,
      "Ġpost": 2759,
      "Ġproper": 2760,
      "ĠØ¹Ø¨Ø¯Ø§ÙĦ": 2761,
      "Ġhy": 2762,
      "ĠØ§ÙĦØ¯ÙĪÙĦÙĬ": 2763,
      "ĠØŃÙĦ": 2764,
      "ides": 2765,
      "arm": 2766,
      "Ġinc": 2767,
      "ÙĪÙģØ±": 2768,
      "Ø¹Ùī": 2769,
      "ÙĦÙħÙĬÙĨ": 2770,
      "Ø±ÙĬØŃ": 2771,
      "ĠØ±ÙĬ": 2772,
      "ets": 2773,
      "ĠÙģØ§ÙĦ": 2774,
      "ĠØ§ÙĬ": 2775,
      "eta": 2776,
      "ĠØ³Ø±": 2777,
      "Ġelect": 2778,
      "Ġdev": 2779,
      "ĠTr": 2780,
      "urther": 2781,
      "ĠÙĨÙģØ³Ùĩ": 2782,
      "da": 2783,
      "Ġgoing": 2784,
      "itive": 2785,
      "Ġsl": 2786,
      "Ġpass": 2787,
      "Ø§Ø¹Ø¨": 2788,
      "ured": 2789,
      "ĠØ¬Ø§Ø¡": 2790,
      "ÙħÙĬ": 2791,
      "ØµØ±ÙĬØ©": 2792,
      "Ġu": 2793,
      "Ġ2017": 2794,
      "ĠÙĪØ§ÙĦØ´": 2795,
      "ots": 2796,
      "Ġopt": 2797,
      "Fig": 2798,
      "ĠØ§ÙĦØŃØ¯ÙĬØ«": 2799,
      "ĠØ§ÙĦØŃÙĬØ§Ø©": 2800,
      "ĠSh": 2801,
      "arge": 2802,
      "ts": 2803,
      "ĠX": 2804,
      "ural": 2805,
      "Ġopen": 2806,
      "33": 2807,
      "'re": 2808,
      "vious": 2809,
      "Ø±ÙĬÙĥÙĬØ©": 2810,
      "ior": 2811,
      "Let": 2812,
      "ĠØ±Ø¨": 2813,
      "serv": 2814,
      "atch": 2815,
      "ĠØ§ÙĦØ´Ø®Øµ": 2816,
      "Ø§Ø¹ÙĬØ©": 2817,
      "Ø¹Ø¯Ø§Ø¯": 2818,
      "Ø§ÙħÙĦØ©": 2819,
      "ination": 2820,
      "Ø¯ÙħØ§Øª": 2821,
      "Ġerr": 2822,
      "ÙĥØ«Ø±": 2823,
      "ĠØŃÙĬ": 2824,
      "ĠØ§ÙĦØ£Ø¯": 2825,
      "ĠØ¯ÙĪÙĦØ§Ø±": 2826,
      "Ġcr": 2827,
      "Ġinformation": 2828,
      "ĠØ´ÙĩØ±": 2829,
      "ysis": 2830,
      "ĠØ§ÙĦØŃÙĤ": 2831,
      "abel": 2832,
      "!!": 2833,
      "ately": 2834,
      "99": 2835,
      "Ø±Ø¨ÙĬ": 2836,
      "AN": 2837,
      "Ġworld": 2838,
      "Ġcare": 2839,
      "ĠØŃÙħ": 2840,
      "Ġmeas": 2841,
      "ĠØ¶ÙħÙĨ": 2842,
      "Ġbre": 2843,
      "Ø°Ø±": 2844,
      "ission": 2845,
      "ÙĥÙĪ": 2846,
      "Ø´Ø©": 2847,
      "ittle": 2848,
      "ÙģØ¸": 2849,
      "---": 2850,
      "Ø§ØªÙģ": 2851,
      "ott": 2852,
      "Ġtype": 2853,
      "ØŃØª": 2854,
      "ĠØ§ÙĦØ£ÙħÙĬØ±": 2855,
      "ĠØ¹Ø±Ø¶": 2856,
      "ĠOn": 2857,
      "ains": 2858,
      "ived": 2859,
      "Ġgreat": 2860,
      "agn": 2861,
      "Ġcontin": 2862,
      "ource": 2863,
      "ĠWh": 2864,
      "Ġtoo": 2865,
      "ĠØ§ÙĦØªØ³": 2866,
      "ĠØ¨Ø¬": 2867,
      "Ġanother": 2868,
      "eral": 2869,
      "ØªÙĬØ¬Ø©": 2870,
      "Ġiss": 2871,
      "Ø²Ø§Ùħ": 2872,
      "pha": 2873,
      "Ġhum": 2874,
      "ĠÙĪØ¬Ùĩ": 2875,
      "Ġreal": 2876,
      "(-": 2877,
      "ital": 2878,
      "Ġfollowing": 2879,
      "ĠÙĨØ´Ø±": 2880,
      "chool": 2881,
      "ĠØ§ÙĦÙĬÙħÙĨ": 2882,
      "This": 2883,
      "ĊĊĠĠĠ": 2884,
      "Ġrest": 2885,
      "Ø£Øª": 2886,
      "pec": 2887,
      "ĠAmeric": 2888,
      "ĠÙħÙĪØ³": 2889,
      "ĠÙħÙĥØ§ÙĨ": 2890,
      "Ġsignificant": 2891,
      "for": 2892,
      "Ġes": 2893,
      "ĠØ§ÙĦØªØ·": 2894,
      "not": 2895,
      "ĠØ¹Ø¯": 2896,
      "AL": 2897,
      "ĠÙĦØ¨ÙĨ": 2898,
      "ĠÙĥÙħ": 2899,
      "Ġident": 2900,
      "ĠÙħØ·": 2901,
      "ĠØ§ÙĦØ¬Ø¯ÙĬØ¯Ø©": 2902,
      "ĠCl": 2903,
      "ÙĪØ¨ÙĬ": 2904,
      "Ø§Ø¯ÙĦ": 2905,
      "ĠØ§ÙĦØ¹Ø¯": 2906,
      "ĠÙĥØªØ§Ø¨": 2907,
      "Ġwithin": 2908,
      "Ġmight": 2909,
      "ording": 2910,
      "Ø§Ø¹ÙĬ": 2911,
      "ÙħØ¨Ø±": 2912,
      "ĠÙħØ±ÙĥØ²": 2913,
      "ĠÙĨØ¸Ø§Ùħ": 2914,
      "ĠThey": 2915,
      "ĠØ§ÙĦØ£Ø±Ø¶": 2916,
      "Ġresults": 2917,
      "att": 2918,
      "bl": 2919,
      "Ġlaw": 2920,
      "erg": 2921,
      "ething": 2922,
      "Ġmult": 2923,
      "ĠÙĦÙħØ§": 2924,
      "ĠÙĦÙĦÙĨ": 2925,
      "Ø§ØŃÙĬØ©": 2926,
      "Ġtem": 2927,
      "ĠÙĪØ§ÙĦØ³": 2928,
      "Ġsince": 2929,
      "ently": 2930,
      "ĠÙĦÙħÙĨ": 2931,
      "Ø¹ÙĦÙĨ": 2932,
      "Ø¯ÙĬÙĨ": 2933,
      "def": 2934,
      "Ø§Ø¨ÙĤØ©": 2935,
      "arn": 2936,
      "Ø·ÙĬØ¹": 2937,
      "Ø¶ÙĬØ©": 2938,
      "Ġtreat": 2939,
      "ury": 2940,
      "ĠLe": 2941,
      "ĠØ±Ø³ÙĪÙĦ": 2942,
      "Ø±ÙĩØ§Ø¨": 2943,
      "Ø§ÙĨØ©": 2944,
      "lex": 2945,
      "ĠÙĨÙģ": 2946,
      "37": 2947,
      "0000": 2948,
      "Ġallow": 2949,
      "duct": 2950,
      "Ġmodel": 2951,
      "ĠÙĪØªÙħ": 2952,
      "fer": 2953,
      "ĠÙħØ¶": 2954,
      "Ġlim": 2955,
      "ways": 2956,
      "Ġ198": 2957,
      "Ø§ÙĩØ±": 2958,
      "ÙĦØ§Ø¡": 2959,
      "ĠØªÙĤØ¯Ùħ": 2960,
      "38": 2961,
      "ĠÙģØ±ÙĬÙĤ": 2962,
      "here": 2963,
      "Ġstruct": 2964,
      "Ġsing": 2965,
      "ĠØ³ÙĨÙĪØ§Øª": 2966,
      "by": 2967,
      "36": 2968,
      "Ø§Ø¦Ø¬": 2969,
      "ĠØ§ÙĦØ³Ø§Ø¨ÙĤ": 2970,
      "ĠØ¨ÙĬØ§ÙĨ": 2971,
      "Ø±ÙĪØ³": 2972,
      "Ø§Ø³Ø§Øª": 2973,
      "aterial": 2974,
      "45": 2975,
      "ration": 2976,
      "ĠØ§ÙĦØ¬Ø¯ÙĬØ¯": 2977,
      "akes": 2978,
      "ÙĬØ§Ø±Ø§Øª": 2979,
      "ĠØ±Ø¬": 2980,
      "Ġwom": 2981,
      "Ġdeterm": 2982,
      "ÙĩØ¨": 2983,
      "ĠØ¨Ø±ÙĨØ§ÙħØ¬": 2984,
      "ĠØ¨Ø§ÙĦØ£": 2985,
      "ves": 2986,
      "ÙĪÙĨÙĬØ©": 2987,
      "mathcal": 2988,
      "Ġocc": 2989,
      "ĠØ§ÙĦÙĪÙĦØ§ÙĬØ§Øª": 2990,
      ")\\": 2991,
      "ives": 2992,
      "work": 2993,
      "Ø§ØªØ¨": 2994,
      "Ø§Ø±Ø¨": 2995,
      "ØµØ§ÙĦ": 2996,
      "ĠØ§ÙĦØªØ´": 2997,
      "ĠØ¨Ø§Ø³Øª": 2998,
      "ÙĥÙĬØ©": 2999,
      "ĠÙħØ³ØªÙĪÙī": 3000,
      "Ø±Ø§ØªÙĬØ¬": 3001,
      "ĠÙĪØ¸": 3002,
      "ÙĪÙħÙĬØ©": 3003,
      "Ġ2019": 3004,
      "Ø¹ÙĦÙĪÙħØ§Øª": 3005,
      "ĠÙĦØ¯Ùī": 3006,
      "ĠÙħØ¯ÙĬØ±": 3007,
      "Ġbeh": 3008,
      "Ġ50": 3009,
      "ĠØ§ÙĦØ´Ø±ÙĤ": 3010,
      "Ġ2016": 3011,
      "}(": 3012,
      "name": 3013,
      "ĠØ¥Ø¯Ø§Ø±Ø©": 3014,
      "ÙĪÙĦÙĪØ¬": 3015,
      "resent": 3016,
      "Ġrece": 3017,
      "Ġsk": 3018,
      "Ġpower": 3019,
      "Ġinterest": 3020,
      "Ø®ÙĪÙĦ": 3021,
      "iness": 3022,
      "Ġturn": 3023,
      "Ġimp": 3024,
      "ĠNo": 3025,
      "Ġlist": 3026,
      "Ø¬ÙĬ": 3027,
      "ably": 3028,
      "ĠØ§ÙĦØ¯ÙĪÙĦÙĬØ©": 3029,
      "ØµÙĪØµ": 3030,
      "uro": 3031,
      "ĠØ§ÙĦÙĪØ·ÙĨÙĬØ©": 3032,
      "ĠØ¥ÙĨÙĩ": 3033,
      "Ġcondition": 3034,
      "ĠØ§ÙĦØ®Ø§Øµ": 3035,
      "ØºÙĬÙĬØ±": 3036,
      "):": 3037,
      "ĠÙĪØ§ÙĦÙĤ": 3038,
      "bers": 3039,
      "Ġmark": 3040,
      "ĠØ§ÙĦØ«ÙĤ": 3041,
      "ĠØªØ¨": 3042,
      "ĠØ£ÙĥØ¨Ø±": 3043,
      "ĠØ§ÙĦØªØ£": 3044,
      "ĠØ§ÙĦÙħÙģ": 3045,
      "ential": 3046,
      "thing": 3047,
      "ØªØ´": 3048,
      "ÙĪÙĦÙĬ": 3049,
      "Ġ>": 3050,
      "ÙĪÙģÙĬ": 3051,
      "Ø¶ÙħÙĨ": 3052,
      "Ġmean": 3053,
      "ĠÙĤØ¯Ùħ": 3054,
      "ĠØŃØ¯Ø«": 3055,
      "ĠØ§ÙĦØªÙī": 3056,
      "ĠØ§ÙĦÙħØµØ±ÙĬ": 3057,
      "Ġvis": 3058,
      "Ġrele": 3059,
      "ĠØ§ÙĦØ£ÙĪØ±": 3060,
      "Ġaddition": 3061,
      "39": 3062,
      "Ø¯Ùĩ": 3063,
      "Ø²Ø§": 3064,
      "(\"": 3065,
      "Ġnever": 3066,
      "ither": 3067,
      "ÙĨØ³Ø¨Ø©": 3068,
      "ĠØ§ÙĦØ´Ø±ÙĥØ©": 3069,
      "ÙĦÙĬÙĤ": 3070,
      "ØŃØ¨": 3071,
      "Ø·Ø§Øª": 3072,
      "ĠÙĪØ§ÙĦØ°ÙĬ": 3073,
      "Ø¯Ø§ÙĬØ©": 3074,
      "Ġplace": 3075,
      "ĠØ§ÙĦÙħÙħÙĦÙĥØ©": 3076,
      "Ø¬Ø§ÙĨ": 3077,
      "ĠAd": 3078,
      "ĠÙĦÙĦØ´": 3079,
      "ĠØ§ÙĦØ§ØªØŃØ§Ø¯": 3080,
      "Ġfew": 3081,
      "ĠIs": 3082,
      "ÙĪØ§Ø¹": 3083,
      "ĠØ§ÙĨÙĩ": 3084,
      "CT": 3085,
      "Ø¨ÙĬØ¹": 3086,
      "Ġincluding": 3087,
      "Ġpop": 3088,
      "Ø±ÙĬÙĥÙĬ": 3089,
      "Ø¬ÙħÙĬØ¹": 3090,
      "Ø¨ØŃØ«": 3091,
      "ĠØ§ÙĦÙħÙĪØ§Ø·": 3092,
      "ÙĦÙĬØ§": 3093,
      "Ġcommun": 3094,
      "âĢľ": 3095,
      "ĠÙĦÙĦØ¥": 3096,
      "ĠÙħØ«": 3097,
      "Ġcurrent": 3098,
      "ĠÙĨØ´": 3099,
      "ĠØ§ÙĦØ«Ø§ÙĦØ«": 3100,
      "son": 3101,
      "70": 3102,
      "ĠØ§ÙĦÙĨÙģ": 3103,
      "ĠÙĪØ¹Ø¯": 3104,
      "iff": 3105,
      "ĠÙģØ¶": 3106,
      "Ø§Ø³Ø¨": 3107,
      "ĠØ§Ø³Ùħ": 3108,
      "ØªØ®Ø§Ø¨Ø§Øª": 3109,
      "Ġleft": 3110,
      "ØŃØ§Ø¨": 3111,
      "Ġtry": 3112,
      "Ġve": 3113,
      "Ġask": 3114,
      "ØŃÙĬØŃ": 3115,
      "Ġexample": 3116,
      "ĠÙĨÙĪØ¹": 3117,
      "Ġlittle": 3118,
      "ED": 3119,
      "Ġbas": 3120,
      "Ø¢ÙĨ": 3121,
      "ĠCon": 3122,
      "ĠØ¥ÙĦÙĬÙĩ": 3123,
      "Ġseem": 3124,
      "ĠØ£ÙĪØ±": 3125,
      "face": 3126,
      "Ġhapp": 3127,
      "Ø¯Øª": 3128,
      "ÙĬØ±ÙĬ": 3129,
      "Ġredu": 3130,
      "Ø´Ø§Ø¡": 3131,
      "ĠØ§ÙĦØ¯Ùħ": 3132,
      "ĠPh": 3133,
      "ÙħØ§ÙĬØ©": 3134,
      "ackage": 3135,
      "Ġfield": 3136,
      "ploy": 3137,
      "Ġsomething": 3138,
      "ĠÙĦÙĥÙĦ": 3139,
      "Ø£ÙĬ": 3140,
      "ĠĠĠĠĠĠĠĠĠĠĠĠĠĠĠĠĠĠĠĠĠĠĠĠ": 3141,
      "ised": 3142,
      "hor": 3143,
      "AS": 3144,
      "rel": 3145,
      "ĠÙĪØ§ÙĦÙģ": 3146,
      "ĠØ¯ÙĬ": 3147,
      "ĠØ§ÙĦØ¢Ø®Ø±": 3148,
      "ule": 3149,
      "Ġbus": 3150,
      "ĠØ§ÙĦØ³ÙĪØ¯": 3151,
      "ĠÙĬÙĥ": 3152,
      "Ġgiven": 3153,
      "ĠØ±Ùħ": 3154,
      "75": 3155,
      "ety": 3156,
      "Ex": 3157,
      "Ġchang": 3158,
      "ĠØŃØ¯ÙĬØ«": 3159,
      "ØµÙĪØ±": 3160,
      "ĠÙħØ´Ø±ÙĪØ¹": 3161,
      "Ø§Ø¨Ø·": 3162,
      "alpha": 3163,
      "Ġfour": 3164,
      "Ġrespect": 3165,
      "ĠSc": 3166,
      "Ġbest": 3167,
      "]\\].": 3168,
      "44": 3169,
      "vern": 3170,
      "Ø¬Ø§Ø²": 3171,
      "Ø²Ø§ÙĦ": 3172,
      "gram": 3173,
      "htt": 3174,
      "Ø³Ø¨ÙĪØ¹": 3175,
      "Ø§Ø³Ø¨Ø©": 3176,
      "ery": 3177,
      "Ø²ÙħØ©": 3178,
      "Ġ21": 3179,
      "ml": 3180,
      "Ġless": 3181,
      "ĠØ§ÙĦÙģØ±ÙĬÙĤ": 3182,
      "Ø§Ø´Ø±": 3183,
      "ĠØ¯Ø§Ø¦": 3184,
      "Ġadv": 3185,
      "stand": 3186,
      "Ġque": 3187,
      "osed": 3188,
      "ining": 3189,
      "ĠØ§ÙĦØ£ØŃ": 3190,
      "ina": 3191,
      "ĠØ§Ø¯": 3192,
      "ĠØ±ÙĤÙħ": 3193,
      "Ø§ÙĩÙħ": 3194,
      "ĠÙĬØ£": 3195,
      "Ġold": 3196,
      "Ø±Ø³": 3197,
      "ĠØµÙĦ": 3198,
      "ĠØ§ÙĦØ³ÙĬØ§Ø³ÙĬØ©": 3199,
      "ĠØ§ÙĦØªØ§Ø±ÙĬØ®": 3200,
      "ĠHowever": 3201,
      "Ġreally": 3202,
      "ĠThere": 3203,
      "ÙĨØ§ÙĪÙĦ": 3204,
      "ÙĩÙĨ": 3205,
      "ertain": 3206,
      "Ġlow": 3207,
      "ope": 3208,
      "Ġhome": 3209,
      "Ø§Ø¨ÙĬØ©": 3210,
      "ĠÙĦØ´": 3211,
      "Ø¹Ø¶Ø§Ø¡": 3212,
      "Ġput": 3213,
      "ĠØ§ÙĦØ¥Ø¹ÙĦØ§Ùħ": 3214,
      "ÙĪØ§ÙĤ": 3215,
      "apt": 3216,
      "ĠØªØŃÙĤÙĬÙĤ": 3217,
      "ĠØ¯ÙĪÙĦØ©": 3218,
      "ĠØªÙĦ": 3219,
      "Ġcap": 3220,
      "ĠÙħØ¬Ø§ÙĦ": 3221,
      "ÙĪØ¨Ø§": 3222,
      "ÙĬØ¯ÙĬ": 3223,
      "Ch": 3224,
      "$$": 3225,
      "Ġgot": 3226,
      "Ġassoci": 3227,
      "oss": 3228,
      "ĠØ³ÙĪÙģ": 3229,
      "ĠØ¹Ø§ÙĦÙħ": 3230,
      "inc": 3231,
      "Ø±ÙĪØ§": 3232,
      "ĠØ§ÙĦÙħØ¬ÙĦØ³": 3233,
      "Ġcome": 3234,
      "Ø®Ø§Øµ": 3235,
      "sec": 3236,
      "ÙħÙĬÙħ": 3237,
      "Ø¹ÙĬÙĨ": 3238,
      "Ġnext": 3239,
      "ĠØ§ÙĦÙĨÙĩ": 3240,
      "Ġpot": 3241,
      "abl": 3242,
      "ĠØ§ÙĦØ³ÙĨ": 3243,
      "Ġlight": 3244,
      "ØªØ±ÙĨØª": 3245,
      "ends": 3246,
      "ĠÙĨÙĬ": 3247,
      "ĠØ§ÙĦØ¨ØŃØ«": 3248,
      "ÙĤØ±ÙĬØ±": 3249,
      "ĠØ£ØµØ¨ØŃ": 3250,
      "ÙĨÙģ": 3251,
      "ĠØªØ¹Ø¯": 3252,
      "ĠÙĦØ§ÙĨ": 3253,
      "================": 3254,
      "ĠØ§ÙĦÙħÙĥ": 3255,
      "ÙĤÙĩ": 3256,
      "Ġhig": 3257,
      "ĠØ§ÙĦØ¨ÙĨ": 3258,
      "ĠÙĩÙħ": 3259,
      "ÙĬØ²Ø©": 3260,
      "ĠØ§ÙĦØ£Ø®Ø±Ùī": 3261,
      "Ġinvest": 3262,
      "ÙĥÙħØ©": 3263,
      "cript": 3264,
      "Ð½": 3265,
      "Ġtechn": 3266,
      "Ġmot": 3267,
      "ĠØ¬Ø§ÙĨØ¨": 3268,
      "ÙĩØ¯Ø§Ùģ": 3269,
      "eter": 3270,
      "ype": 3271,
      "Ø·Ø§Ø¡": 3272,
      "Ø§Ø§": 3273,
      "Ġcal": 3274,
      "ÙĪØ¶Ø¹": 3275,
      "Ġ28": 3276,
      "ivid": 3277,
      "lection": 3278,
      "Ø¯Ø§Ø¯": 3279,
      "ĠÙĨÙĤÙĦ": 3280,
      "ÙĦÙĬÙĨ": 3281,
      "reg": 3282,
      "Ġbased": 3283,
      "Ø§ÙħÙĬ": 3284,
      "ĠØ§ÙĦØ¯Ø§Ø®": 3285,
      "ØªÙĬØ§Ø±": 3286,
      "Ġtyp": 3287,
      "ij": 3288,
      "ĠØ§ÙĦØµÙģ": 3289,
      "ĠÙĨØ¸Ø±": 3290,
      "ĠØ§ÙĦØªØ±Ùĥ": 3291,
      "04": 3292,
      "Ġ{#": 3293,
      "Ġbo": 3294,
      "Ġtop": 3295,
      "mb": 3296,
      "Ġclaim": 3297,
      "Ġarg": 3298,
      "ĠØ§ÙĦØ£Ø´": 3299,
      "Ø³Ø³Ø©": 3300,
      "Ġprob": 3301,
      "ÙħØª": 3302,
      "ĠØ§ÙĦÙħØ¯ÙĬÙĨØ©": 3303,
      "Ġbro": 3304,
      "Ġ2015": 3305,
      "ĠPl": 3306,
      "ĠØ¨Ø§Ø±": 3307,
      "vert": 3308,
      "ĠØ§ÙĦÙħØ§ÙĦÙĬØ©": 3309,
      "ĠÙĬØ¹ÙĨÙĬ": 3310,
      "Ø±Øª": 3311,
      "ĠÙĨØµ": 3312,
      "Ġgrow": 3313,
      "ĠØ¹Ø¯Ø©": 3314,
      "Ø·ÙĨ": 3315,
      "ÙĤØ±Ø§Ø±": 3316,
      "Ø§Ø¦Ø¹": 3317,
      "Ġ26": 3318,
      "ĠØ¹Ø´": 3319,
      "ern": 3320,
      "Ø³Ø³Ø§Øª": 3321,
      "ene": 3322,
      "ĠØ·ÙĦØ¨": 3323,
      "Ġ!": 3324,
      "ĠØ§ÙĦØ¹Ø§ÙĦÙħÙĬØ©": 3325,
      "bs": 3326,
      "ĠØ§ÙĦØªÙģ": 3327,
      "Ġmonth": 3328,
      "ĠØ§ÙĦØ¨ÙĦØ§Ø¯": 3329,
      "icro": 3330,
      "ĠÙĦÙĤ": 3331,
      "Ġgovern": 3332,
      "^{\\": 3333,
      "ĠÙĪØ§Ø³": 3334,
      "Ø·Ø§ÙĨ": 3335,
      "ĠØ¹ÙĤ": 3336,
      "ĠWhat": 3337,
      "ump": 3338,
      "ÙĪÙĨØ³": 3339,
      "Ġlarge": 3340,
      "Ø§ØŃØ¨": 3341,
      "ĠØ¹Ø§ÙħØ§": 3342,
      "Ġprof": 3343,
      "ength": 3344,
      "ÙħÙĬÙĦ": 3345,
      "ĠØ¨ÙĨØ§Ø¡": 3346,
      "aining": 3347,
      "Ø¹ÙĦØ§ÙĨ": 3348,
      "55": 3349,
      "ID": 3350,
      "Ġimportant": 3351,
      "Ġobserv": 3352,
      "ĠFr": 3353,
      "Ñģ": 3354,
      "ÙĤÙĤ": 3355,
      "ØªÙģØ§Ø¹": 3356,
      "IS": 3357,
      "Ġ*/": 3358,
      "rap": 3359,
      "Ġleg": 3360,
      "Ø§Ø¯Ø«": 3361,
      "yt": 3362,
      "ribut": 3363,
      "ĠØ§ÙĦØ±Ø³": 3364,
      "por": 3365,
      "ĠØ´Ø¨": 3366,
      "Ġindic": 3367,
      "Ã¡": 3368,
      "48": 3369,
      "ĠØ§ÙĦØ§Ø±": 3370,
      "ÙĩØ±Ø¨": 3371,
      "Pro": 3372,
      "ĠØ±Ø¯": 3373,
      "Ġdescrib": 3374,
      "ĠÙĤØ§ÙĨÙĪÙĨ": 3375,
      "ĠÙħÙĨÙĩÙħ": 3376,
      "ĠÙģÙĦØ§": 3377,
      "Ø¬Ø¨": 3378,
      "ĠØ§ÙĦØŃÙĦ": 3379,
      "ĠÙģÙĤØ§ÙĦ": 3380,
      "Ġhealth": 3381,
      "ÙĪØ¨ÙĬØ©": 3382,
      "new": 3383,
      "Ġsit": 3384,
      "Con": 3385,
      "ccess": 3386,
      "Ø±ÙĬÙĨ": 3387,
      "ird": 3388,
      "Ġmov": 3389,
      "ÙĥØ§Ø±": 3390,
      "ÙĦÙħØ§ÙĨ": 3391,
      "ho": 3392,
      "ference": 3393,
      "Ġ22": 3394,
      "ØªÙĨ": 3395,
      "ended": 3396,
      "ÙģØ§Ø¡": 3397,
      "Ġ$$\\": 3398,
      "Ġmen": 3399,
      "ÙĬÙĪÙĨ": 3400,
      "Ġwater": 3401,
      "ÙĨÙĬØ§": 3402,
      "ĠØ§ÙĦÙĨÙĤ": 3403,
      "ÙĪÙģÙĬØ±": 3404,
      "ÑĢ": 3405,
      "ĠÙĤØ¯Ø±": 3406,
      "Ø§Ø¯Ùĩ": 3407,
      "ĠØ§ÙĦÙħÙĪØ³": 3408,
      "ĠØ§ÙĦØ«Ø§ÙĨÙĬØ©": 3409,
      "rt": 3410,
      "Ġbelie": 3411,
      "ÙĦÙĥØªØ±": 3412,
      "reen": 3413,
      "uck": 3414,
      "ĠØ§ÙĦØ£ÙħØ±ÙĬÙĥÙĬØ©": 3415,
      "ĠÙĥØ§ÙģØ©": 3416,
      "ĠØ¨Ùģ": 3417,
      "Ġparticular": 3418,
      "ĠÙĥØªØ¨": 3419,
      "Ã³": 3420,
      "ĠØ£ÙĩÙĦ": 3421,
      "Ø³ØªØ±": 3422,
      "ĠØ§ÙĦÙĨØ¨ÙĬ": 3423,
      "roll": 3424,
      "Ġsam": 3425,
      "ãĥ": 3426,
      "ØªØ®Ø¨": 3427,
      "ats": 3428,
      "ĠÙĦØ°ÙĦÙĥ": 3429,
      "Ġsugg": 3430,
      "Ġview": 3431,
      "RE": 3432,
      "Ġdr": 3433,
      "Ġsuggest": 3434,
      "mun": 3435,
      "ĠØ§ÙĦØ¬ÙĬØ´": 3436,
      "Ġhist": 3437,
      "ĠAll": 3438,
      "ÙĥÙĦØ©": 3439,
      "Ġanalysis": 3440,
      "ĊĊĠ": 3441,
      "ĠÙĬØ®": 3442,
      "Ġapplic": 3443,
      "ĠØ®Ø§Ø±Ø¬": 3444,
      "Ġ23": 3445,
      "var": 3446,
      "Ġobject": 3447,
      "Ø¸ÙĬÙģ": 3448,
      "leg": 3449,
      "Ø§Ø¬Ø§Øª": 3450,
      "ĠEx": 3451,
      "Ø®ØµØµ": 3452,
      "ĠØ¨ÙĥÙĦ": 3453,
      "ĠUS": 3454,
      "ÙĥØ§": 3455,
      "ÙĪÙĬØ§Øª": 3456,
      "Ġ2014": 3457,
      "Ġ27": 3458,
      "âĪ": 3459,
      "arget": 3460,
      "IC": 3461,
      "ĠÙĪØªØŃ": 3462,
      "ĊĠĠ": 3463,
      "ĠÙĪÙĦÙĬØ³": 3464,
      "ĠØ§ÙĦØ®Ø§Ø±Ø¬ÙĬØ©": 3465,
      "67": 3466,
      "Ġbetter": 3467,
      ",âĢĿ": 3468,
      "ĠØªÙĤØ¯ÙĬÙħ": 3469,
      "Ġder": 3470,
      "Ġknown": 3471,
      "Ġide": 3472,
      "aps": 3473,
      "Ġchange": 3474,
      "Ġcommon": 3475,
      "Ø§ÙĬØ±": 3476,
      "ĠÙĥÙĪØ±": 3477,
      "ambda": 3478,
      "ĠØ§ÙĦØ³Ø§Ø¹Ø©": 3479,
      "Ġuntil": 3480,
      "Ġfre": 3481,
      "ÃŃ": 3482,
      "ocument": 3483,
      "LE": 3484,
      "Ġobt": 3485,
      "hib": 3486,
      "ĊĠĠĠĠ": 3487,
      "ĠØ§ÙĦØµÙĦ": 3488,
      "ctor": 3489,
      "ĠØ¨Ø§ÙĨ": 3490,
      "Ġmus": 3491,
      "ilar": 3492,
      "Ø¶ÙĪØ±": 3493,
      "Ġabove": 3494,
      "Ø§ÙĥÙħ": 3495,
      "Ġeas": 3496,
      "rop": 3497,
      "ĠÙĩØ¯": 3498,
      "ten": 3499,
      "ĠÙĪÙĬØª": 3500,
      "oor": 3501,
      "Ø·ÙĬ": 3502,
      "ĠÙĬÙĤÙĪÙħ": 3503,
      "elta": 3504,
      "ĠØ¨Ø§ÙĦØ¹": 3505,
      "au": 3506,
      "Ġrecord": 3507,
      "ĠØ¹ÙĤØ¯": 3508,
      "pped": 3509,
      "ĠÙĤØ±Ø§Ø±": 3510,
      "co": 3511,
      "ĠØ³ÙĪØ±ÙĬØ§": 3512,
      "Ø§ÙĩÙĬÙħ": 3513,
      "ĠØ§ÙĦØ£ØŃØ¯": 3514,
      "ĠØ§ÙĦØ´Ø¨Ø§Ø¨": 3515,
      "Ø§Ø´Ø±Ø©": 3516,
      "outh": 3517,
      "Ġden": 3518,
      "ÙĬÙĨÙĬØ©": 3519,
      "Ġsw": 3520,
      "ĠØ¯Ø¹": 3521,
      "ĠÙĪØ³ÙĬ": 3522,
      "ĠÙĨÙĩ": 3523,
      "Ġ...": 3524,
      "ĠØ£Ø¹ÙħØ§ÙĦ": 3525,
      "ĠØ§ÙĦØ±Ø¦ÙĬØ³ÙĬØ©": 3526,
      "ØªØ§": 3527,
      "69": 3528,
      "'ll": 3529,
      "ĠÙĪÙĥØ°ÙĦÙĥ": 3530,
      "ĠØ¬ÙĦ": 3531,
      "plic": 3532,
      "Ġsever": 3533,
      "####": 3534,
      "Ġthings": 3535,
      "Ġwon": 3536,
      "Ġcalled": 3537,
      "ĠØ§ÙĦÙĦØ¬ÙĨØ©": 3538,
      "AC": 3539,
      "amma": 3540,
      "ØªÙħØ§Ùħ": 3541,
      "Ġconne": 3542,
      "Ø±ÙĪØ¬": 3543,
      "Ġ--": 3544,
      "isk": 3545,
      "09": 3546,
      "Ġ)": 3547,
      "Ø³ÙĥØ±ÙĬØ©": 3548,
      "'d": 3549,
      "ÙĩÙĪØ¯": 3550,
      "Ġvers": 3551,
      "Ø¬Ø±Ø§Ø¡Ø§Øª": 3552,
      "ait": 3553,
      "ĠØ§ÙĦØŃØ±Ø¨": 3554,
      "ĠÙĦÙĦØ¯": 3555,
      "ĠÙĪØ§Ø¶": 3556,
      "Ø§Ø¦Ùĩ": 3557,
      "ĠØ¨Ø§ÙĦØ¥Ø¶Ø§ÙģØ©": 3558,
      "aring": 3559,
      "ency": 3560,
      "ification": 3561,
      "Ġpath": 3562,
      "ĠØªØ¤": 3563,
      "ÙĪØ±ÙĥØ³": 3564,
      "'ve": 3565,
      "ÙĦØ¹": 3566,
      "ream": 3567,
      "ĠØ§ÙĦØ®Ùħ": 3568,
      "Ġthought": 3569,
      "ĠØ²ÙĪØ¬": 3570,
      "ÙģÙĬÙĨ": 3571,
      "ØºÙĬØ±Ø©": 3572,
      "ĠÙĬÙĥÙĨ": 3573,
      "ĠGr": 3574,
      "65": 3575,
      "ĠØ§ÙĦÙħØ§ÙĦ": 3576,
      "ples": 3577,
      "Ġcharacter": 3578,
      "ØµØ§Ø±": 3579,
      "Ġleast": 3580,
      "Ø¸Ø©": 3581,
      "Ġlater": 3582,
      "ĠUnited": 3583,
      "ÙĤÙĦÙĬÙħ": 3584,
      "ĠÙĪØ¨Ø¹Ø¯": 3585,
      "ĠØ¨ÙħÙĨ": 3586,
      "ĠØ§ÙĦÙħÙĪØ¶ÙĪØ¹": 3587,
      "ĠØ¨Ø§ÙĦÙĨØ³Ø¨Ø©": 3588,
      "Ġposition": 3589,
      "HE": 3590,
      "ĠØ¹Ø¶": 3591,
      "Ġorgan": 3592,
      "Ġproduct": 3593,
      "ĠØ£ÙĬØ§Ùħ": 3594,
      "Ġself": 3595,
      "ÙĩÙĩ": 3596,
      "ÙĪÙĬÙĨ": 3597,
      "Ġdays": 3598,
      "ĠØ§ÙĦÙħØ·": 3599,
      "Ġinvol": 3600,
      "As": 3601,
      "();": 3602,
      "ĠØ§ÙĦØ£Ø¹ÙħØ§ÙĦ": 3603,
      "ĠÙĨØ¹": 3604,
      "Ġwhether": 3605,
      "iod": 3606,
      "Ġrese": 3607,
      "And": 3608,
      "Ø§ÙĦØ£": 3609,
      "Ġfail": 3610,
      "ÙĪÙħÙĬ": 3611,
      "ØªØ¯Ùī": 3612,
      "den": 3613,
      "ÙĪØ¶ØŃ": 3614,
      "ĠSo": 3615,
      "Ġtot": 3616,
      "ĠÙĨÙĩØ§ÙĬØ©": 3617,
      "ĠÙģÙĩÙĪ": 3618,
      "Ġside": 3619,
      "ĠØ£Ø¬": 3620,
      "aut": 3621,
      "Ġ29": 3622,
      "ĠØŃØ³Ø¨": 3623,
      "Ø§Ø¨ÙĬ": 3624,
      "Ø§ÙĪØ²": 3625,
      "ĠØ¹ÙĨÙĩØ§": 3626,
      "rain": 3627,
      "Ġbuild": 3628,
      "Ġhaving": 3629,
      "Ġpossible": 3630,
      "08": 3631,
      "ung": 3632,
      "Ġhard": 3633,
      "ÙĪØ±Ø§Øª": 3634,
      "ĠØŃÙĬØ§Øª": 3635,
      "ĠÙĤÙĨ": 3636,
      "ĠØ§ÙĦØ´Ø¹": 3637,
      "Ġopp": 3638,
      "Î±": 3639,
      "ĠÙĨØŃÙĨ": 3640,
      "ĠØ§ÙĦÙħØµØ±ÙĬØ©": 3641,
      "cur": 3642,
      "ĠØ£Ø«ÙĨØ§Ø¡": 3643,
      "ĠCol": 3644,
      "Ø³ÙĦØŃØ©": 3645,
      "ask": 3646,
      "ĠTo": 3647,
      "ĠÙģØªØ±Ø©": 3648,
      "epend": 3649,
      "ĠÙħØ¹Ø¯": 3650,
      "Ġconsider": 3651,
      "Ġdue": 3652,
      "Ø«ÙħØ§Ø±": 3653,
      "onse": 3654,
      "ĠØ§ÙĦÙħØ±Ø£Ø©": 3655,
      "ĠÙĪØ§ÙĦØµ": 3656,
      "Ø´ÙĦ": 3657,
      "ĠÙĤØ¨": 3658,
      "Ġfile": 3659,
      "ĠØ§ÙĦÙħØ¹ÙĦÙĪÙħØ§Øª": 3660,
      "Ø§Ø¶ÙĬØ©": 3661,
      "Ġalways": 3662,
      "ĠØ¬Ø§ÙħØ¹Ø©": 3663,
      "Ġproblem": 3664,
      "Ġvol": 3665,
      "ĠØ£ÙħØ³": 3666,
      "Ġexpect": 3667,
      "ĠÙģØ¹ÙĦ": 3668,
      "Ġdidn": 3669,
      "Ġbi": 3670,
      "Ġprom": 3671,
      "aces": 3672,
      "ĠÙĪØ§ÙĦØ®": 3673,
      "ĠÙĬÙħÙĥÙĨÙĥ": 3674,
      "opy": 3675,
      "Ø¦Ø§Øª": 3676,
      "Ġrepresent": 3677,
      "che": 3678,
      "ĠÙĪÙĬØ¹": 3679,
      "action": 3680,
      "ĠØ§ÙĦÙĩÙĬ": 3681,
      "Ġbook": 3682,
      "Ð¾Ð": 3683,
      "Ø¬Ø§Ùĩ": 3684,
      "ware": 3685,
      "ĠÙħÙĪØ¶ÙĪØ¹": 3686,
      "ĠØ¨Ø§ÙĦÙĤ": 3687,
      "31": 3688,
      "ÙĥÙĬÙĦ": 3689,
      "ison": 3690,
      "ances": 3691,
      "ĠÙĪØµÙĦ": 3692,
      "ĠØªØªÙħ": 3693,
      "iversity": 3694,
      "ĠØ§Øµ": 3695,
      "Ġgive": 3696,
      "ĠØŃÙĤÙĪÙĤ": 3697,
      "ĠÙĤØµ": 3698,
      "ĠØªØ·Ø¨ÙĬÙĤ": 3699,
      "49": 3700,
      "Ø§ÙĦÙĩ": 3701,
      "ember": 3702,
      "ØµØ§Ø¨Ø©": 3703,
      "Ø§Ø¤": 3704,
      "Ġfamily": 3705,
      "Ġ{\\": 3706,
      "ĠØ§ÙĦÙĪØ²Ø±Ø§Ø¡": 3707,
      "ĠØ¨Ø§ÙĦÙģ": 3708,
      "mu": 3709,
      "Ġlocal": 3710,
      "Ø®Ø©": 3711,
      "ĠâĢĶ": 3712,
      "ĠBl": 3713,
      "ividual": 3714,
      "Ġreason": 3715,
      "ĠÙĪØ£Ø¶Ø§Ùģ": 3716,
      "ĠÙģÙĨ": 3717,
      "ÙĩÙĬØ±": 3718,
      "ajor": 3719,
      "Ø¬ÙĩØ²Ø©": 3720,
      "ault": 3721,
      "},": 3722,
      "ormal": 3723,
      "ours": 3724,
      "ling": 3725,
      "68": 3726,
      "Ġevidence": 3727,
      "acy": 3728,
      "Ġfree": 3729,
      "ĠØ³ÙĪØ§Ø¡": 3730,
      "ĠØ§ÙĦØ·ÙĦ": 3731,
      "Ġhuman": 3732,
      "Ġ%": 3733,
      "Ġavail": 3734,
      "ĠØ£ÙĨØ§": 3735,
      "ÙĩÙĪØ±ÙĬØ©": 3736,
      "ological": 3737,
      "Ġrad": 3738,
      "47": 3739,
      "Ġfeel": 3740,
      "Ġ40": 3741,
      "ee": 3742,
      "ĠØ§ÙĦØ£Ø®ÙĬØ±Ø©": 3743,
      "ÙĤØ±Ø§Ø·": 3744,
      "ĠSp": 3745,
      "Ġ2020": 3746,
      "Ġimpro": 3747,
      "Ġbig": 3748,
      "ĠÙĬÙĦ": 3749,
      "Ø§ØµÙħØ©": 3750,
      "Ġ2013": 3751,
      "ĠÙĦÙĨØ§": 3752,
      "Ø§Ø¦Ø¯Ø©": 3753,
      "Ġmain": 3754,
      "add": 3755,
      "ĠĠĠĠĠĠĠĠĠĠĠ": 3756,
      "ĠØ¨ÙĬÙĨÙħØ§": 3757,
      "icle": 3758,
      "Ġaway": 3759,
      "ĠInd": 3760,
      "hy": 3761,
      "ĠØ§ÙĦØ³ÙĪØ±ÙĬ": 3762,
      "ĠØªÙĤÙĪÙħ": 3763,
      "ĠØ§ÙĦÙģØªØ±Ø©": 3764,
      "ĠÙĦÙģ": 3765,
      "ÙĪØ¬ÙĪØ¯": 3766,
      "ĠØ§ÙĦØ¨Ø·": 3767,
      "ĠØ¥Ùħ": 3768,
      "Ø§Ø¯ÙĤ": 3769,
      "iron": 3770,
      "Ġoffic": 3771,
      "imal": 3772,
      "Ġsingle": 3773,
      "ĠØ¯Ùħ": 3774,
      "Ġdiv": 3775,
      "Ġquestion": 3776,
      "ĠØ§ÙĦØ±ØŃ": 3777,
      "though": 3778,
      "ush": 3779,
      "ĠAt": 3780,
      "ÙĬØµ": 3781,
      "Ø§ØŃÙĦ": 3782,
      "Ø³Ø§": 3783,
      "ØªÙħØ¯": 3784,
      "ograph": 3785,
      "ĠØ±Ø£Ø³": 3786,
      "org": 3787,
      "ĠØ§ÙĦØ±Ø³Ùħ": 3788,
      "rem": 3789,
      "Ø§ÙħØ¨": 3790,
      "ÙĬÙĦØ§": 3791,
      "ÙĥØ§Øª": 3792,
      "bar": 3793,
      "ending": 3794,
      "ĠØ§ÙĦØµÙĨ": 3795,
      "Ø³ÙĦØ³ÙĦ": 3796,
      "Ġorig": 3797,
      "Ġkeep": 3798,
      "play": 3799,
      "Ġtreatment": 3800,
      "Ġsize": 3801,
      "Ġinit": 3802,
      ")/": 3803,
      "ards": 3804,
      "ead": 3805,
      "Ø¨Ø¯ÙĪ": 3806,
      "ĠÙĪÙĥÙĦ": 3807,
      "Ġfurther": 3808,
      "orth": 3809,
      "label": 3810,
      "egin": 3811,
      "Ø§Ø¬Ø¹": 3812,
      "Ġseveral": 3813,
      "ohn": 3814,
      "ĠØ·Ø¨ÙĬ": 3815,
      "ĠØ±Ø¤": 3816,
      "ĠÙĦÙħØ¯Ø©": 3817,
      "ĠØ§ÙĦØ®ÙĦÙĬ": 3818,
      "raw": 3819,
      "cont": 3820,
      "ØªÙĦØ§ÙĦ": 3821,
      "Ġ197": 3822,
      "ÙĥÙĬÙĨ": 3823,
      "ĠÙħØ²": 3824,
      "ĠÙĦØ¨ÙĨØ§ÙĨ": 3825,
      "Ġsum": 3826,
      "part": 3827,
      "ai": 3828,
      "ĠØ§ÙĦØ´Ø±ÙĥØ§Øª": 3829,
      "Cl": 3830,
      "ET": 3831,
      "ĠÙĪØªÙĨ": 3832,
      "rences": 3833,
      "To": 3834,
      "ĠØ§ÙĦØ³Ø¨": 3835,
      "Ġ2011": 3836,
      "Ø¤ÙĦØ§Ø¡": 3837,
      "}^{": 3838,
      "But": 3839,
      "ĠØ§ÙĦÙĤØ·Ø§Ø¹": 3840,
      "Ġschool": 3841,
      "Ø¹Ø¨Ø©": 3842,
      "Ġshown": 3843,
      "ĠØ§ÙĦÙĤØ§ÙĩØ±Ø©": 3844,
      "ĠÙĦØ£ÙĨÙĩ": 3845,
      "ĠStates": 3846,
      "ĠApp": 3847,
      "Ø§Ø¦ÙĦØ©": 3848,
      "Ø¬Ø±Ø¯": 3849,
      "ĠÙĦØ³": 3850,
      "ØªÙħØ±Ø§Ø±": 3851,
      "}_": 3852,
      "ĠØ¥Ø³Ø±Ø§Ø¦ÙĬÙĦ": 3853,
      "ĠØ¨Øº": 3854,
      "ĠÙĥÙĪÙĨ": 3855,
      "ext": 3856,
      "Ġprevious": 3857,
      "Ø¨Ø§Ø¡": 3858,
      "enn": 3859,
      "ĠÙĦÙĦÙĤ": 3860,
      "ĠØ§ÙĦØ±Ø¨": 3861,
      "Ø¶ØŃ": 3862,
      "ĠØ§Ø¬ØªÙħØ§Ø¹": 3863,
      "ĠÙĥØ±": 3864,
      "etic": 3865,
      "ĠÙħØ³Ø§Ø¡": 3866,
      "ĠÙĪØ§ÙĦØ«": 3867,
      "ley": 3868,
      "ÙĬÙħÙĤØ±Ø§Ø·": 3869,
      "ĠØ¬Ø±": 3870,
      "Ø§Ø±Ø¹": 3871,
      "AP": 3872,
      "ĠÙħØ¹ÙĦ": 3873,
      "Ġfri": 3874,
      "Ġalong": 3875,
      "07": 3876,
      "Ø´Ø±ÙĬÙĨ": 3877,
      "ĠThese": 3878,
      "mat": 3879,
      "ĠØ§ÙĦØ¬ÙħØ¹Ø©": 3880,
      "Ø§ØµÙĬÙĦ": 3881,
      "02": 3882,
      "ĠØ«ÙĦØ§Ø«Ø©": 3883,
      "sel": 3884,
      "Ġelse": 3885,
      "Ġnet": 3886,
      "ĠØ¨Ø§Ø³Ùħ": 3887,
      "Ġcomb": 3888,
      "ĠÙĥØ«": 3889,
      "Ã§": 3890,
      "If": 3891,
      "usion": 3892,
      "********": 3893,
      "ued": 3894,
      "alse": 3895,
      "ĠØ§ÙĦØ¥Ø³ÙĦØ§ÙħÙĬØ©": 3896,
      "igma": 3897,
      "ourse": 3898,
      "ÙħØ¹": 3899,
      "ĠØ§ÙĦØ¹Ø¨": 3900,
      "ĠÙħØ³Ø¤ÙĪÙĦ": 3901,
      "Ġindividual": 3902,
      "Ø¶Ø§ÙĨ": 3903,
      "ĠÙĤÙĦ": 3904,
      "ĠØ§ÙĦØ³ÙĬØ¯": 3905,
      "mathbb": 3906,
      "ĠÙĦÙĬØ³Øª": 3907,
      "Ġtrue": 3908,
      "ĠØ§Ø¶": 3909,
      "=\\": 3910,
      "inf": 3911,
      "Ġtell": 3912,
      "Ġtimes": 3913,
      "Ġmar": 3914,
      "ĠØ§ÙĦØ³ÙĪÙĤ": 3915,
      "ĠØ¹ÙĦÙĬÙĥ": 3916,
      "Ø³Ø¨Ø§Ø¨": 3917,
      "Ġ2012": 3918,
      "nd": 3919,
      "ĠØ§ÙĦØ¥ÙħØ§Ø±Ø§Øª": 3920,
      "Ġprogram": 3921,
      "pi": 3922,
      "uff": 3923,
      "ĠØ¨Ø´Ø£ÙĨ": 3924,
      "ĠØ¯Ø¹Ùħ": 3925,
      "ĠØµØ¯": 3926,
      "Ø§ÙĥÙĦ": 3927,
      "Ø¬Ø§Ø±": 3928,
      "ÙĬÙħÙĥÙĨ": 3929,
      "ready": 3930,
      "Ġsimilar": 3931,
      "nal": 3932,
      "Ġey": 3933,
      "ĠÙĪÙĬÙĨ": 3934,
      "Ø¯Ø±Ø³Ø©": 3935,
      "iment": 3936,
      "ocial": 3937,
      "Ġexpression": 3938,
      "Ø¥Ø°Ø§": 3939,
      "ĠØ§ÙĦÙħØ²ÙĬØ¯": 3940,
      "itor": 3941,
      "ĠÙģØªØŃ": 3942,
      "ered": 3943,
      "ĠØŃÙĪ": 3944,
      "âĪĴ": 3945,
      "ĠØ§ÙĦÙĤØ§Ø¯": 3946,
      "ched": 3947,
      "ĠØ¨ÙĬØª": 3948,
      "col": 3949,
      "Ġeither": 3950,
      "Ø¬ÙĪÙħ": 3951,
      "ĠÙĦØµ": 3952,
      "ĠÙĪØ«": 3953,
      "ĠØ§ÙĦÙħÙĪÙĤØ¹": 3954,
      "ĠØ§ÙĦÙĤØ¯Ùħ": 3955,
      "ĠØ§ÙĦÙħØ³ÙĦÙħÙĬÙĨ": 3956,
      "Ġarea": 3957,
      "ÙĨÙĩ": 3958,
      "Ġgeneral": 3959,
      "ĠØµÙĪØ±": 3960,
      "ĠØŃØ³ÙĨ": 3961,
      "Ġ</": 3962,
      "ĠØ§ÙĦØ¨ÙĦØ¯": 3963,
      "ĠØ¨Ø§Ø¨": 3964,
      "Ġpred": 3965,
      "ift": 3966,
      "Ø³Ø§Ùħ": 3967,
      "ister": 3968,
      "ored": 3969,
      "}_{": 3970,
      "Ġlik": 3971,
      "Ġfar": 3972,
      "ÙĨØ³ÙĬ": 3973,
      "ÙĨØ¨": 3974,
      "ĠØ®Ø¯ÙħØ©": 3975,
      "ĠÙĪØ¢": 3976,
      "ĠThat": 3977,
      "ĠØ§ÙĦÙħØ«": 3978,
      "Ġgame": 3979,
      "ĠØ¹ÙĦÙĬÙĩÙħ": 3980,
      "Ġmove": 3981,
      "ĠØ¬Ø¹ÙĦ": 3982,
      "alf": 3983,
      "Ø°ÙĩØ¨": 3984,
      "ressed": 3985,
      "ĠØ¯ÙĬÙĨ": 3986,
      "Ġplan": 3987,
      "ĠÙĤØ·Ø§Ø¹": 3988,
      "ĠØ´Ùĩ": 3989,
      "pone": 3990,
      "ĠØ§ÙĦØ¨ÙĬØ§ÙĨ": 3991,
      "rist": 3992,
      "ĠÙĦÙĩØ°Ø§": 3993,
      "oups": 3994,
      "Ġteam": 3995,
      "Ø°Ø¨": 3996,
      "ĠØ§ÙĦØ³ÙĬØ§Ø³ÙĬ": 3997,
      "eb": 3998,
      "ĠWhen": 3999,
      "ĠØ§ÙĦØŃÙĥÙħ": 4000,
      "aken": 4001,
      "ĠØ§ÙĦØ¥Ø±ÙĩØ§Ø¨": 4002,
      "ĠØ¬Ø¯": 4003,
      "ĠÙĦÙĦÙĩ": 4004,
      "Ġcirc": 4005,
      "begin": 4006,
      "ÙĥØ§ÙĦ": 4007,
      "('": 4008,
      "resp": 4009,
      "ĠØµÙĨ": 4010,
      "Ġcho": 4011,
      "ĠCourt": 4012,
      "ĠÙħÙĤØ§Ø¨ÙĦ": 4013,
      "Ġcost": 4014,
      "ĠÙģÙĦØ³Ø·ÙĬÙĨ": 4015,
      "ĠØ§ÙĦØ£Ø±Ø¯": 4016,
      "ĠØ§ÙĦØ³Ø±": 4017,
      "Ġprovide": 4018,
      "ĠÙĦØ§ØŃ": 4019,
      "Ø¹ÙĦÙī": 4020,
      "Ġchildren": 4021,
      "Ġproject": 4022,
      "ÙĦØ¨ÙĬØ©": 4023,
      "ĠØ¸ÙĦ": 4024,
      "Ġbusiness": 4025,
      "Ġfull": 4026,
      "ĠØ§Ø«": 4027,
      "osp": 4028,
      "ĠOr": 4029,
      "Ġpay": 4030,
      "Ġwar": 4031,
      "Ø¬ÙħÙĪØ¹": 4032,
      "Ġable": 4033,
      "Ġweek": 4034,
      "Ø¤Ø§ÙĦ": 4035,
      "Ġbody": 4036,
      "ÙĨØ§Ùĥ": 4037,
      "57": 4038,
      "Ø·Ø±Ø©": 4039,
      "ĠÙĥØ°ÙĦÙĥ": 4040,
      "ĠØ§ÙĦØµØŃØ©": 4041,
      "Ġmeans": 4042,
      "ering": 4043,
      "Ø§ÙģØ±": 4044,
      "back": 4045,
      "ÙĤØµ": 4046,
      "ĠÙĪØ¨ÙĬÙĨ": 4047,
      "ØªÙĨØ§": 4048,
      "ĠÙħØ´Ø§Ø±": 4049,
      "Ġavailable": 4050,
      "ament": 4051,
      "ĠØ§ÙĦØ£Ø±Ø¨Ø¹": 4052,
      "ØªÙĤØ¯": 4053,
      "cle": 4054,
      "ried": 4055,
      "Ġinfl": 4056,
      "ĠØ²ÙĬ": 4057,
      "Ġemploy": 4058,
      "ĠØªÙĨØ¸ÙĬÙħ": 4059,
      "Ġabs": 4060,
      "iple": 4061,
      "Ġunderstand": 4062,
      "Ġshort": 4063,
      "Com": 4064,
      "Ġmaterial": 4065,
      "Ġperiod": 4066,
      "03": 4067,
      "ler": 4068,
      "ĠØ§ÙĦØ§Ø¬ØªÙħØ§Ø¹ÙĬ": 4069,
      "ÙĨÙĬÙĩ": 4070,
      "ubl": 4071,
      "ØŃØµ": 4072,
      "ume": 4073,
      "ĠÙĦØ¬ÙĨØ©": 4074,
      "Ġcode": 4075,
      "ĠØŃØ²Ø¨": 4076,
      "Ġjud": 4077,
      "Ġgovernment": 4078,
      "ĠRes": 4079,
      "ergy": 4080,
      "ĠÙĦÙĦÙģ": 4081,
      "Ġcame": 4082,
      "Ø¦Ø§": 4083,
      "88": 4084,
      "side": 4085,
      "59": 4086,
      "ÙĨØ³ÙĬØ©": 4087,
      "Ġeng": 4088,
      "usep": 4089,
      "iving": 4090,
      "Ġphys": 4091,
      "Ø§Ø·Ø±": 4092,
      "enc": 4093,
      "ĠÙĨØªÙĬØ¬Ø©": 4094,
      "ari": 4095,
      "Ġmajor": 4096,
      "Ø³ÙĥØ±ÙĬ": 4097,
      "indow": 4098,
      "ØªØ±Ùĥ": 4099,
      "ĠÙĬØ¹ÙħÙĦ": 4100,
      "ĠØŃÙĥÙħ": 4101,
      "oney": 4102,
      "Ø¹Ø±Ø¶": 4103,
      "yle": 4104,
      "ising": 4105,
      "ĠØ§ÙĦØªÙĪØ§ØµÙĦ": 4106,
      "mon": 4107,
      "ney": 4108,
      "ĠÙĦØ§Ø³Øª": 4109,
      "ĠØ§ÙĦØ³Ùħ": 4110,
      "Ø¨Ø§ÙĦ": 4111,
      "Ġamong": 4112,
      "sw": 4113,
      "ĠØ¨Ø§Øª": 4114,
      "06": 4115,
      "usepackage": 4116,
      "ĠÙĬÙĪØ¬Ø¯": 4117,
      "ÙĬØ³ÙĬ": 4118,
      "ĠÙĪØ³Ø·": 4119,
      "ÙĥØ§Ùħ": 4120,
      "ĠØ§ÙĦÙħØ´Ø±ÙĪØ¹": 4121,
      "Ø§ÙĨÙĩ": 4122,
      "ser": 4123,
      "Ġdesign": 4124,
      "Ø§Ø¨Ùĩ": 4125,
      "ĠBe": 4126,
      "itted": 4127,
      "ÙĤØ¯Ø±": 4128,
      "illion": 4129,
      "Ġsent": 4130,
      "ĠÙĪØŃØ¯": 4131,
      "ĠØ§ÙĦÙĦØ¨ÙĨ": 4132,
      "ĠØ¨Ø§ÙĦÙĨ": 4133,
      "ÙĨØ§Ùĩ": 4134,
      "aligned": 4135,
      "Ø³ØªØ§ÙĨ": 4136,
      "oper": 4137,
      "Ø¹Ø§ÙĬØ©": 4138,
      "Ø§Ø¦ÙĬÙĦÙĬ": 4139,
      "Ġdiff": 4140,
      "angle": 4141,
      "Ġsequ": 4142,
      "ĠØ§ÙĦÙĥØªØ§Ø¨": 4143,
      "opt": 4144,
      "ÃĲ": 4145,
      "Ġstudies": 4146,
      "ĠØ§ÙĦØ³Ùģ": 4147,
      "mm": 4148,
      "Ġ2010": 4149,
      "ÙĦÙĬÙģ": 4150,
      "ĠØ§Ùĩ": 4151,
      "ĠØªÙĨÙģÙĬØ°": 4152,
      "100": 4153,
      "AM": 4154,
      "ĠØ·Ø¨": 4155,
      "ĠØ²ÙĬØ§Ø¯Ø©": 4156,
      "empt": 4157,
      "Ø§ØªÙĩÙħ": 4158,
      "Ġhold": 4159,
      "}$$": 4160,
      "Ġsure": 4161,
      "ĠØµØ§ØŃØ¨": 4162,
      "ĠÙĥÙĨ": 4163,
      "Ġcertain": 4164,
      "ĠØ§ÙĦØŃØµÙĪÙĦ": 4165,
      "Ġhigher": 4166,
      "Ġthough": 4167,
      "mit": 4168,
      "ÙĪØ±Ø¯": 4169,
      "Ġtold": 4170,
      "Ø±ÙĬÙĦ": 4171,
      "Ġele": 4172,
      "Ġvi": 4173,
      "ĠØ¹Ø²": 4174,
      "ĠØ§ÙĦÙĤØ±Ø¢ÙĨ": 4175,
      "Ø§Ø¦Ø±Ø©": 4176,
      "Ã¦": 4177,
      "OU": 4178,
      "ĠÙĤÙĪØ§Øª": 4179,
      "ĠØ§ÙĦØ®ÙħÙĬØ³": 4180,
      "ĠØ§ÙĦØ¥ÙĦÙĥØªØ±": 4181,
      "Ġoften": 4182,
      "Ġinf": 4183,
      "olution": 4184,
      "ĠØ±ØºÙħ": 4185,
      "Ġwhy": 4186,
      "Ġprim": 4187,
      "aster": 4188,
      "ĠØ¨ÙĦØº": 4189,
      "Ġfore": 4190,
      "Ġport": 4191,
      "ries": 4192,
      "Ġcoun": 4193,
      "ØµØ¨": 4194,
      "ape": 4195,
      "ÙĦÙħØ§Øª": 4196,
      "II": 4197,
      "Ġsuper": 4198,
      "Ġalready": 4199,
      "Ø£ÙĦ": 4200,
      "phi": 4201,
      "af": 4202,
      "];": 4203,
      "Ø§Ø¦ÙĩØ§": 4204,
      "Ġsat": 4205,
      "ĠØ£ÙĦ": 4206,
      "urs": 4207,
      "ĠØ¶Ø±": 4208,
      "Ġcrit": 4209,
      "ÙĬØªÙĩØ§": 4210,
      "ĠCal": 4211,
      "ĠØ§ÙĨØªÙĩ": 4212,
      "Ø¹ÙĪ": 4213,
      "mber": 4214,
      "Ġexist": 4215,
      "lected": 4216,
      "ĠØ§ÙĦØ¯Ø§Ø®ÙĦÙĬØ©": 4217,
      "Ġspecific": 4218,
      "ĠÙĪØ§ÙĦÙħÙĨ": 4219,
      "Ø¶Ø§ÙĬØ§": 4220,
      "erc": 4221,
      "Ġvalues": 4222,
      "ĠÙĪÙĥØ§ÙĨØª": 4223,
      "Ø«Ø§Ø±": 4224,
      "Ġpri": 4225,
      "Ġupon": 4226,
      "ĠØ§ÙĦØ´Ø¹Ø±": 4227,
      "ÙĨØ§Ø¦ÙĬØ©": 4228,
      "ĠØ§ÙĦØ£Ø±": 4229,
      "Ã¨": 4230,
      "Ġtotal": 4231,
      "66": 4232,
      "Ġwomen": 4233,
      "ique": 4234,
      "ĠÙĬØ¹Ø±Ùģ": 4235,
      "ĠØ§ÙĦØ£Ø·ÙģØ§ÙĦ": 4236,
      "For": 4237,
      "ãĢ": 4238,
      "lambda": 4239,
      "Ġthing": 4240,
      "mission": 4241,
      "Ġenough": 4242,
      "Ø¦Ø§Ø³Ø©": 4243,
      "ĠØ§ÙĦØ®Ø¨Ø±": 4244,
      "Ġmil": 4245,
      "div": 4246,
      "Ġpolit": 4247,
      "ĠØ£ÙħÙĨ": 4248,
      "58": 4249,
      "ÙĪØº": 4250,
      "ĠØ§ÙĦÙĤÙĬ": 4251,
      "ĠÙĦØ¨": 4252,
      "Ġstrong": 4253,
      "ĠØ¯Ø§Ø¦ÙħØ§": 4254,
      "ĠØ§ÙĦØªØ¬Ø§Ø±ÙĬØ©": 4255,
      "aug": 4256,
      "ØµÙĦØ§ØŃ": 4257,
      "Ġcases": 4258,
      "ĠÙĬÙĪÙĨ": 4259,
      "ĠØ¥Ø¶Ø§ÙģØ©": 4260,
      "idth": 4261,
      "ĠØ§ÙĦØ¯ÙģØ§Ø¹": 4262,
      "ÙģØ±Ø§Ø¯": 4263,
      "most": 4264,
      "Ø§ØŃØ«": 4265,
      "utes": 4266,
      "Ġdise": 4267,
      "Ø´ÙģÙī": 4268,
      "Ø·Ø§ÙĦ": 4269,
      "ĠØ§ÙĦÙĤØ¨": 4270,
      "Ġdone": 4271,
      "ĠØ§ÙĦØ±ÙĪØ³": 4272,
      "ustom": 4273,
      "ÏĦ": 4274,
      "ÙĪØ´": 4275,
      "ØŃØ§Øª": 4276,
      "ØªØ¬Ø§Øª": 4277,
      "ĠMar": 4278,
      "Ġtook": 4279,
      "ÙĥÙĨÙĪÙĦÙĪØ¬": 4280,
      "ĠØµØ¨Ø§ØŃ": 4281,
      "go": 4282,
      "ĠØ®Ø§Øµ": 4283,
      "Ø¤ÙĪÙĨ": 4284,
      "Ġreview": 4285,
      "Ġsubject": 4286,
      "Ġkey": 4287,
      "Ġlay": 4288,
      "ounds": 4289,
      "ĠÙĤÙĬ": 4290,
      "ables": 4291,
      "Ġmom": 4292,
      "ĠPM": 4293,
      "ĠØ§ÙĦØ¨Ø¯": 4294,
      "Ġaction": 4295,
      "Ø±ÙĪØ¶": 4296,
      "sum": 4297,
      "ĠØ§ÙĦØ«ÙĦØ§Ø«Ø§Ø¡": 4298,
      "ĠØ§ÙĦÙħØ²": 4299,
      "ĠÙĪØ§ÙĦØ§Ø³Øª": 4300,
      "Tr": 4301,
      "Ġsuccess": 4302,
      "Ġparam": 4303,
      "Ã¶": 4304,
      "ales": 4305,
      "ĠØ±ÙģØ¹": 4306,
      "Ġben": 4307,
      "ĠØ¨Ø¯Ø§ÙĬØ©": 4308,
      "ĠØ§ÙĦØ£Ùĩ": 4309,
      "Ġaccess": 4310,
      "chan": 4311,
      "ÙģØ§Øª": 4312,
      "Ġkind": 4313,
      "Ġpract": 4314,
      "ĠØ§ÙĦØ£ÙħØ±ÙĬÙĥÙĬ": 4315,
      "iver": 4316,
      "Ø¬ÙĦÙĬ": 4317,
      "LL": 4318,
      "ĠØ§ÙĦØµÙĬÙĨ": 4319,
      "ĠØ§ÙĦØ¬ÙĦ": 4320,
      "ĠØªØ¹ÙħÙĦ": 4321,
      "ØŃÙħØ¯": 4322,
      "OM": 4323,
      "ĠØ´ÙĥÙĦ": 4324,
      "ĠÙĥØ§ÙĦ": 4325,
      "Ġmanag": 4326,
      "ĠÙĬØ¹Ø¯": 4327,
      "ĠÙħØ¹Ùĩ": 4328,
      "ÙĪÙĪ": 4329,
      "Ø§ÙĩØ¯Ø©": 4330,
      "ĠÙĪØ§Ø¹": 4331,
      "ĠCo": 4332,
      "Ġpriv": 4333,
      "ĠØ§ÙĦØ§Ø¨": 4334,
      "ĠØ§ÙĦØ³ÙĨØ©": 4335,
      "Ġerror": 4336,
      "Ġmass": 4337,
      "Ġmor": 4338,
      "ØªÙĪØ¨Ø±": 4339,
      "ĠÙĥØ«ÙĬØ±Ø§": 4340,
      "ÙĪØ±Ø§": 4341,
      "ands": 4342,
      "Ġsens": 4343,
      "ĠÙħØ®ØªÙĦÙģØ©": 4344,
      "ĠØ§ÙĦØ£ÙħÙħ": 4345,
      "na": 4346,
      "ÙĬØ±Ø§Øª": 4347,
      "ĠØŃØµÙĦ": 4348,
      "Ġlot": 4349,
      "ĠÙĦÙĤØ¯": 4350,
      "ĠØ¸ÙĩØ±": 4351,
      "aced": 4352,
      "Ġhowever": 4353,
      "199": 4354,
      "ĠØ±Ø£": 4355,
      "ĠØ§ÙĦØ£Ùģ": 4356,
      "ĠØ¬Ø²Ø¡": 4357,
      "42": 4358,
      "ĠUniversity": 4359,
      "Ø§Ø¦ØŃ": 4360,
      "ĠØ³Ø¨ÙĬÙĦ": 4361,
      "Ġhtt": 4362,
      "Ġevent": 4363,
      "stit": 4364,
      "Ø±ÙģØ¹": 4365,
      "Ø§ÙħÙĬØ©": 4366,
      "Ø§Ø¯Øª": 4367,
      "ĠØ§ÙĦØ´Ùĩ": 4368,
      "Ø±ÙĬØ¨Ø§": 4369,
      "ĠÙĪØ§ÙĦØ±": 4370,
      "SE": 4371,
      "ĠØ§ÙĦÙģÙĪØ±ÙĥØ³": 4372,
      "ux": 4373,
      "ĠÙĪØ§ÙĦÙĥ": 4374,
      "ĠÙĨØ¸": 4375,
      "data": 4376,
      "ÙĨØ¯ÙĤ": 4377,
      "ÙĪØ§Ø¬Ùĩ": 4378,
      "ids": 4379,
      "ogn": 4380,
      "use": 4381,
      "Ġcourse": 4382,
      "gin": 4383,
      "Ġneg": 4384,
      "Ġrate": 4385,
      "ĠÙĦÙĥÙħ": 4386,
      "ĠØ§ÙĦØ£Øµ": 4387,
      "ØºÙĬÙĦ": 4388,
      "Ġtarget": 4389,
      "ĠÙĪØªØ´": 4390,
      "ĠØ±ÙĪØ³": 4391,
      "ĠØ¥Ø¯": 4392,
      "_\\": 4393,
      "fficient": 4394,
      "Ġair": 4395,
      "Ġearly": 4396,
      "ĠØ§ØªÙģØ§ÙĤ": 4397,
      "-\\": 4398,
      "ĠMr": 4399,
      "Ø¹Ø§Ùħ": 4400,
      "Ø§Ø¬ÙĩØ©": 4401,
      "ÙĬØ§ÙĨØ©": 4402,
      "AD": 4403,
      "Ø¨ÙĤÙī": 4404,
      "ÙĤØ§ÙħØ©": 4405,
      "ĠØ¨ÙĬØ±": 4406,
      "ĠØ§ÙĦØ¹ÙĨ": 4407,
      "41": 4408,
      "ĠØ§ÙĦÙĩÙĨØ¯": 4409,
      "Ġpress": 4410,
      "eps": 4411,
      "ĠAmerican": 4412,
      "Ø§Ø¬Ùĩ": 4413,
      "sequ": 4414,
      "ÙĬÙħÙĬ": 4415,
      "ĠØ§ÙĦÙĨØ¸Ø±": 4416,
      "ĠØ§ÙĦØ®Ø§Ùħ": 4417,
      "ĠØ§ÙĦØ§ÙĤØªØµØ§Ø¯ÙĬØ©": 4418,
      "mod": 4419,
      "Ø±Ø§ØªÙĬØ¬ÙĬØ©": 4420,
      "Ġdom": 4421,
      "Ġlo": 4422,
      "ĠØ±ÙĪ": 4423,
      "uit": 4424,
      "46": 4425,
      "Ø¬Ø±Ø©": 4426,
      "No": 4427,
      "ores": 4428,
      "ĠÙĦÙĦØ³": 4429,
      "Ġseen": 4430,
      "ĠØ¹Ø§ÙĦÙĬØ©": 4431,
      "Ġlevels": 4432,
      "Ġage": 4433,
      "Ġ==": 4434,
      "ĠØŃØ§ÙĦÙĬØ§": 4435,
      "ĠÙħØ¨Ø§Ø±Ø§Ø©": 4436,
      "ĠØ§ÙĦØ¨Ø´Ø±": 4437,
      "Ġcaus": 4438,
      "return": 4439,
      "Ø°Ùĥ": 4440,
      "ĠØ§ÙĦØªØ¹Ø§ÙĪÙĨ": 4441,
      "une": 4442,
      "ĠØ§ÙĦØªØ¯Ø§ÙĪÙĦ": 4443,
      "sq": 4444,
      "Ġassociated": 4445,
      "cted": 4446,
      "Ġroom": 4447,
      "ĠEng": 4448,
      "Ø§ÙĦØ¬": 4449,
      "Ø±ÙĪØ·": 4450,
      "Ġspace": 4451,
      "ĠÙĦØªØŃ": 4452,
      "ĠÙĪÙģÙĤØ§": 4453,
      "ĠÙģÙĪÙĤ": 4454,
      "Ġenc": 4455,
      "Ø§ÙĨØ§Øª": 4456,
      "Ø§Ø±Ø§": 4457,
      "Ġver": 4458,
      "Ø§ÙĨØ¯": 4459,
      "Ġann": 4460,
      "itle": 4461,
      "ÙĬØ±ÙĬØ©": 4462,
      "Ġsays": 4463,
      "Ø§ÙģØ¹": 4464,
      "Ø§ÙĪÙĬ": 4465,
      "key": 4466,
      "ories": 4467,
      "ĠÙħØº": 4468,
      "Ġtalk": 4469,
      "ĠØ´Ø¹Ø¨": 4470,
      "ibility": 4471,
      "ĠÙĩØ¤ÙĦØ§Ø¡": 4472,
      "bo": 4473,
      "ĠØ§ÙĦØ³Ø¨Øª": 4474,
      "How": 4475,
      "ĠØ¥ÙĬØ±Ø§ÙĨ": 4476,
      "ĠØ§ÙĦØ´Ùħ": 4477,
      "Ø®ÙĦØµ": 4478,
      "ĠØ±Ø³Ùħ": 4479,
      "ĠØ³Ø¹Ø±": 4480,
      "Ġdiscuss": 4481,
      "ĠØ§ÙĦÙħØ³Ø¤ÙĪÙĦ": 4482,
      "Ø§Ø¦Ø²Ø©": 4483,
      "unt": 4484,
      "ĠØŃØ±ÙĥØ©": 4485,
      "asing": 4486,
      "ØªØª": 4487,
      "ĠØ£ÙĤÙĦ": 4488,
      "gether": 4489,
      "Ø§ÙĦÙĬØ§": 4490,
      "ÙĩØ°Ø§": 4491,
      "Ġtrial": 4492,
      "Ġtogether": 4493,
      "Ġreported": 4494,
      "uf": 4495,
      "On": 4496,
      "ĠØ§ÙĦØ§ØªÙģØ§ÙĤ": 4497,
      "Ø«Ø©": 4498,
      "ÙĦØ§Ùĥ": 4499,
      "Ġinvestig": 4500,
      "ened": 4501,
      "Ġphot": 4502,
      "ÙĪÙĬÙĦØ©": 4503,
      "ivity": 4504,
      "Ø§Ø±Øª": 4505,
      "ĠØ®ÙĦÙģ": 4506,
      "Ġrepl": 4507,
      "ĠÙĬØ³Ùħ": 4508,
      "ØµØ¨ØŃ": 4509,
      "Ġenergy": 4510,
      "Ø±Ø§Ø¡Ø©": 4511,
      "ival": 4512,
      "OT": 4513,
      "ĠØ¨Ø¯ÙĪÙĨ": 4514,
      "ĠØ±ØŃ": 4515,
      "Ġnight": 4516,
      "ians": 4517,
      "ĠJohn": 4518,
      "ĠĠĠĠĠĠĠĠĠ": 4519,
      "}^": 4520,
      "})": 4521,
      "conom": 4522,
      "ĠØ¥ÙĦÙĬÙĩØ§": 4523,
      "uation": 4524,
      "ĠÙĨØ³Ø¨Ø©": 4525,
      "Ġhouse": 4526,
      "ĠÙĪØ§ÙĦØ¬": 4527,
      "Ø¶ÙĦ": 4528,
      "ĠMay": 4529,
      "fun": 4530,
      "ØªÙĤØ§ÙĦ": 4531,
      "ĠState": 4532,
      "hing": 4533,
      "Ġple": 4534,
      "Ġwent": 4535,
      "56": 4536,
      "Ġdefend": 4537,
      "ĠÙĪØ§ÙĦØªØ¹": 4538,
      "Ġwrit": 4539,
      "ÙĤØ§Ùħ": 4540,
      "Ġgroups": 4541,
      "inter": 4542,
      "\")": 4543,
      "ÙĪÙĤØ§ÙĦ": 4544,
      "ĠØ¥ØŃØ¯": 4545,
      "Ġfinal": 4546,
      "ĠØµØŃÙĬÙģØ©": 4547,
      "ĠÙĥØª": 4548,
      "ĠÙĪØ¨Ø§ÙĦØª": 4549,
      "ĠØ§ÙĦÙģÙĦØ³Ø·ÙĬÙĨÙĬØ©": 4550,
      "Al": 4551,
      "ators": 4552,
      "ĠØ¥Ø¹Ø§Ø¯Ø©": 4553,
      "ĠØ®ÙĦ": 4554,
      "ĠØ§ÙĦØ³ÙĪ": 4555,
      "www": 4556,
      "ony": 4557,
      "Ġonce": 4558,
      "ĠØ§ÙĦØ®Ø¯ÙħØ§Øª": 4559,
      "rug": 4560,
      "ibr": 4561,
      "ĠÙħØ§Ø±Ø³": 4562,
      "čĊ": 4563,
      "no": 4564,
      "ĠØ§ÙĦÙħÙĤØ¯": 4565,
      "Ġgre": 4566,
      "ĠÙĥØ§ÙĨÙĪØ§": 4567,
      "Ġresponse": 4568,
      "cret": 4569,
      "angu": 4570,
      "Ø³Ø§Ø±Ø©": 4571,
      "89": 4572,
      "ribution": 4573,
      "verage": 4574,
      "ĠÙĥÙĪØ±ÙĪÙĨØ§": 4575,
      "Ø³Ø¨Ø©": 4576,
      "dd": 4577,
      "Ġdeath": 4578,
      "ĠØ¨ÙĩØ°Ø§": 4579,
      "Ø§Ø¦Ø©": 4580,
      "ĠØ§ÙĦÙħØŃÙĦÙĬØ©": 4581,
      "ĠØ¨Ø£ÙĨÙĩ": 4582,
      "ĠØªÙĩ": 4583,
      "Ġdevelopment": 4584,
      "77": 4585,
      "ĠØ§ÙĦÙħØ®ØªÙĦÙģ": 4586,
      "ÙĤØ±Ø±": 4587,
      "Un": 4588,
      "Ġlarg": 4589,
      "Ġmaking": 4590,
      "________": 4591,
      "viron": 4592,
      "Ø§ÙĪÙĦØ©": 4593,
      "ĠØ§ÙĦØ±Ø¬ÙĦ": 4594,
      "Ø¨Ø±Ùī": 4595,
      "Ø¨Ø±Ø²": 4596,
      "Ġbit": 4597,
      "Ø§ØªÙĬ": 4598,
      "Ø§Ø²ÙĬ": 4599,
      "43": 4600,
      "ÙĬØ¯ÙĬÙĪ": 4601,
      "Ġ${\\": 4602,
      "Ø±ÙĪØ¨": 4603,
      "Ġaccount": 4604,
      "ĠØ¨Ø°ÙĦÙĥ": 4605,
      "Ø±ÙĬÙĤÙĬØ§": 4606,
      "sub": 4607,
      "IG": 4608,
      "Ø§Ø¹Ø±": 4609,
      "ĠØªØ²": 4610,
      "ĠÙħØ¹Ø¸Ùħ": 4611,
      "ĠAM": 4612,
      "ĠØ§ÙĦÙĪØ·ÙĨ": 4613,
      "ocus": 4614,
      "ĠØ§ÙĦØ¬ÙħÙĬØ¹": 4615,
      "ĠØ§ÙĦÙħÙĨØ§Ø·ÙĤ": 4616,
      "ĠØ§ÙĦØ§Ø«": 4617,
      "Ġlower": 4618,
      "Ġcult": 4619,
      "Ġinclude": 4620,
      "Ø´Ø§Ø±Ùĥ": 4621,
      "ĠØ§ÙĦÙħÙĤØ¨ÙĦ": 4622,
      "ÙĬÙħØ§ÙĨ": 4623,
      "Ġlove": 4624,
      "Ġacross": 4625,
      "ÙĩØ§Ùħ": 4626,
      "Ø§Ø¨Øª": 4627,
      "ØªØ±Ø§": 4628,
      "Ġactivity": 4629,
      "ĠØ·Ø±ÙĬÙĤØ©": 4630,
      "ception": 4631,
      "Ġear": 4632,
      "ĠØ§ÙĦØ±Ø¬": 4633,
      "ĠØ§ÙĦØ·Ø±ÙĬÙĤ": 4634,
      "ĠØ§ÙĦØ±ØºÙħ": 4635,
      "ĠØ§ÙĦØ§Ø¬ØªÙħØ§Ø¹ÙĬØ©": 4636,
      "ension": 4637,
      "ĠØ§ÙĦÙħØ´Ø§Ø±ÙĥØ©": 4638,
      "ĠØ§ÙĦØŃØ§ÙĦÙĬ": 4639,
      "mp": 4640,
      "ĠØªØ¹Ø±Ø¶": 4641,
      "Ø´Ø§Ø±Ø©": 4642,
      "ĠØ¬ÙĨÙĪØ¨": 4643,
      "Ġinj": 4644,
      "ones": 4645,
      "Ġmicro": 4646,
      "Ġaff": 4647,
      "ĠØŃØ³Ø§Ø¨": 4648,
      "ĠØ£Ø³Ø§Ø³": 4649,
      "ĠÙĬÙĨØ§": 4650,
      "Ġface": 4651,
      "ĠØ§ÙĦØ³ÙĦØ·Ø©": 4652,
      "ĠÙĤÙĪÙĦÙĩ": 4653,
      "ĠØ¹ÙħÙĦÙĬØ§Øª": 4654,
      "ĠÙĬÙĪÙĦ": 4655,
      "Ġamount": 4656,
      "ober": 4657,
      "ÙĦÙĬÙĩ": 4658,
      "ĠØ§ÙĦÙĤÙĪØ§Øª": 4659,
      "ĠØ§ÙĦÙĨÙģØ·": 4660,
      "rodu": 4661,
      "ÙģÙĬØ©": 4662,
      "ĠØ§ÙĦØ¯Ø¹": 4663,
      "atures": 4664,
      "ĠØ¯ÙģØ¹": 4665,
      "ØºØ¨": 4666,
      "ĠØ§ÙĦÙĤØ±ÙĨ": 4667,
      "table": 4668,
      "Ġworking": 4669,
      "ÙģØ§Ø¸": 4670,
      "Ġestabl": 4671,
      "ĠØ§ÙĦÙĪØ§ÙĤØ¹": 4672,
      "Ġrequired": 4673,
      "Ġdou": 4674,
      "Name": 4675,
      "wh": 4676,
      "Ġ([": 4677,
      "ĠÙĬÙĨØ§ÙĬØ±": 4678,
      "ĠØ¨Ø§ÙĦÙĥ": 4679,
      "Ġyoung": 4680,
      "Ġcompared": 4681,
      "ĠØ§ÙĦÙģÙĨ": 4682,
      "ĠØ´Ø¹": 4683,
      "Ġbecome": 4684,
      "ĠØ§ÙĦÙħÙĬØ§Ùĩ": 4685,
      "ĠÙħØ¨Ø§Ø´Ø±Ø©": 4686,
      "Ġterms": 4687,
      "ĠÙĪØºÙĬØ±ÙĩØ§": 4688,
      "ĠØ§ÙĦÙĥØ¨ÙĬØ±": 4689,
      "Ø³ÙĬØ©": 4690,
      "ĠØ£Ø´ÙĩØ±": 4691,
      "ÙħÙĪØ¯": 4692,
      "Ġpast": 4693,
      "Ġauthor": 4694,
      "Ġpotential": 4695,
      "osis": 4696,
      "Ø¬Ø§ØŃ": 4697,
      "ÙĪØ§Ùħ": 4698,
      "ption": 4699,
      "dex": 4700,
      "Ġrelations": 4701,
      "Ġred": 4702,
      "ĠØ£Ø±Ø¶": 4703,
      "Ġtw": 4704,
      "uppose": 4705,
      "ga": 4706,
      "Ġrequire": 4707,
      "ĠØ§ÙĦØ¨Ø±ÙĨØ§ÙħØ¬": 4708,
      "Ġvir": 4709,
      "ĠØ§ÙĦÙħÙĪØ§Ø·ÙĨÙĬÙĨ": 4710,
      "Ġever": 4711,
      "sy": 4712,
      "ØªÙħØ¨Ø±": 4713,
      "ĠØ¥Ø·Ø§Ø±": 4714,
      "Ġnecess": 4715,
      "ĠØªØµØ±ÙĬØŃ": 4716,
      "ĠØ§ÙĦØ§ÙĤ": 4717,
      "iation": 4718,
      "ĠØ£ÙĥØ¯": 4719,
      "cd": 4720,
      "class": 4721,
      "Ø§Ø²ÙĦ": 4722,
      "ĠØ´ÙĩØ¯": 4723,
      "oll": 4724,
      "ude": 4725,
      "ĠØ§ÙĦØªÙħ": 4726,
      "ĠØ§ÙĦØ´ÙĩØ±": 4727,
      "iction": 4728,
      "http": 4729,
      "ĠØ¨Ø§ÙĦØ³": 4730,
      "ÙĪØ§Ø·": 4731,
      "Ġcomplet": 4732,
      "ĠØ³Ø§Ø¹Ø©": 4733,
      "OS": 4734,
      "Ø®Ùģ": 4735,
      "Ø§ÙĦØ¹": 4736,
      "atory": 4737,
      "ĠØ§ÙĦØ£Ø±Ø¨Ø¹Ø§Ø¡": 4738,
      "ĠÙĪØº": 4739,
      "Ø§ÙħÙĬÙĨ": 4740,
      "ĠEuro": 4741,
      "Ø±ÙĬØ¹": 4742,
      "Ø´ØŃ": 4743,
      "Ġlog": 4744,
      "{{\\": 4745,
      "ĠCan": 4746,
      "ĠPr": 4747,
      "ØªØ¯Ø§Ø¡": 4748,
      "Î¿": 4749,
      "Ġ([@": 4750,
      "ĠØ§ÙĦÙĤØ±Ø§Ø±": 4751,
      "ĠBr": 4752,
      "ĠÙĤØ§Ø¦ÙħØ©": 4753,
      "ĠÙĪØ§ÙĦØ¨": 4754,
      "ĠØ®Ø¨Ø±": 4755,
      "ection": 4756,
      "Ø²ÙĬÙĨ": 4757,
      "ÙĪÙĦØ§Øª": 4758,
      "Ø¯Ùī": 4759,
      "ĠØªØº": 4760,
      "Ġdescribed": 4761,
      "]).": 4762,
      "Ø¬Ø¹": 4763,
      "ĠØªØ·ÙĪÙĬØ±": 4764,
      "ĠØ¨Ø§ÙĦØŃ": 4765,
      "Ø§Ø²ÙħØ©": 4766,
      "ĠCoun": 4767,
      "clude": 4768,
      "ĠÙĩÙĬØ¦Ø©": 4769,
      "Ġcomput": 4770,
      "ĠCar": 4771,
      "ĠØ§ÙĦÙĥÙĪÙĬØª": 4772,
      "ĠØ«ÙĤ": 4773,
      "ns": 4774,
      "ĠØ±Ø¬ÙĦ": 4775,
      "essage": 4776,
      "ĠØ¬ÙĪ": 4777,
      "istic": 4778,
      "53": 4779,
      "head": 4780,
      "ĠÙĦÙĦØº": 4781,
      "Ġimage": 4782,
      "my": 4783,
      "ION": 4784,
      "Ø³ÙĪÙĨ": 4785,
      "Ġrange": 4786,
      "ĠÙĬØ±ÙĬØ¯": 4787,
      "ĠÙĨØªØ§Ø¦Ø¬": 4788,
      "ĠØ§ÙĦÙĤØµ": 4789,
      "ĠØ§ÙĦØ¥ÙĬØ±": 4790,
      "ĊĠĠĠĠĠĠĠĠĠ": 4791,
      "ĠØ§ÙĦØµÙĦØ§Ø©": 4792,
      "Ġcheck": 4793,
      "ĠÙĪÙĩÙħ": 4794,
      ".)": 4795,
      "ĠØ§ÙĦØ¬Ø§Ùħ": 4796,
      "Ġrole": 4797,
      "Ġrisk": 4798,
      "medi": 4799,
      "ĠØ£Ø±Ø¨": 4800,
      "Ġcompany": 4801,
      "ĠØ§ÙĦØ·Ø¨": 4802,
      "Ġfac": 4803,
      "ino": 4804,
      "Is": 4805,
      "ĠÙĪØµÙģ": 4806,
      "ĠÙħÙĦÙĬØ§Ø±": 4807,
      "??": 4808,
      "Ġconditions": 4809,
      "ĠØ§ÙĦÙħØ®ØªÙĦÙģØ©": 4810,
      "wards": 4811,
      "ĠØ§ÙĦØ³Ø¹ÙĪØ¯ÙĬ": 4812,
      "ĠØ£ÙĥØªÙĪØ¨Ø±": 4813,
      "ĠØ§ÙĦØ§Ø´": 4814,
      "Ġmeet": 4815,
      "Ġ2009": 4816,
      "idd": 4817,
      "Ø§ÙĦØ³": 4818,
      "beta": 4819,
      "Ø¹ÙĦÙĤØ©": 4820,
      "There": 4821,
      "eters": 4822,
      "Ø¹Ø±Ø§Ø¶": 4823,
      "Ġtext": 4824,
      "ĠØ¯Ø±Ø¬Ø©": 4825,
      "test": 4826,
      "ĠÙĪØ§Ø´": 4827,
      "Ġep": 4828,
      "Ø°Ø©": 4829,
      "ĠÙĥÙĦÙħØ©": 4830,
      "Ġexc": 4831,
      "ĠØ§ÙĦÙĨØ³Ø§Ø¡": 4832,
      "lete": 4833,
      "ĠØªØ¯Ø§ÙĪÙĦ": 4834,
      "Ġdetail": 4835,
      "ĠÙħÙĪØ§ÙĤØ¹": 4836,
      "Ġresearch": 4837,
      "ÙĥÙĬØ¯": 4838,
      "ĠOne": 4839,
      "mathbf": 4840,
      "imate": 4841,
      "ĠØ§ÙĦÙĩÙĬØ¦Ø©": 4842,
      "54": 4843,
      "uture": 4844,
      "irl": 4845,
      "Ø³Ø±Ø§Ø¦ÙĬÙĦÙĬ": 4846,
      "arrow": 4847,
      "ĠØ§ÙĦØ§ÙĨØªØ®Ø§Ø¨Ø§Øª": 4848,
      "ÙĥÙħØ§": 4849,
      "Ġrespons": 4850,
      "this": 4851,
      "pm": 4852,
      "Ġ`": 4853,
      "ĠØ§ÙĦÙħØ³ÙĬ": 4854,
      "aintiff": 4855,
      "ĠAfter": 4856,
      "ĠTe": 4857,
      "ÙĪØ¬ÙĬÙĩ": 4858,
      "ØªØ³": 4859,
      "Ġ60": 4860,
      "ĠØ§ÙĦØ¨Ø¹Ø¶": 4861,
      "Ø²ÙĬØ©": 4862,
      "ĠØ³ÙĬÙĥÙĪÙĨ": 4863,
      "Ġservice": 4864,
      "Ph": 4865,
      "Ø³ÙĦØ©": 4866,
      "ĠØ§ÙĦØ·Ø±Ùģ": 4867,
      "ĠÙĪØ³Ø§Ø¦ÙĦ": 4868,
      "Ġprovided": 4869,
      "iter": 4870,
      "Ġdoing": 4871,
      "----------------------------------------------------------------": 4872,
      "Â°": 4873,
      "ĠÙĨØ§Ø¯ÙĬ": 4874,
      "ĠØ§ÙĦÙħØ¹Ø¯": 4875,
      "Ġsepar": 4876,
      "ĠØªÙħØ§ÙħØ§": 4877,
      "Ġbar": 4878,
      "ĠØ§Ø·": 4879,
      "Ġmechan": 4880,
      "ĠØ§ÙĦÙĪØ¸": 4881,
      "ÙĤØ¨Ø§ÙĦ": 4882,
      "Ġfrequ": 4883,
      "Ø±Ø§": 4884,
      "atter": 4885,
      "Ġasked": 4886,
      "ÙĬØªÙĩ": 4887,
      "Ġchanges": 4888,
      "ĠØ£Ø³Ø¹Ø§Ø±": 4889,
      "Ġfive": 4890,
      "Ġce": 4891,
      "ĠØ³ÙĬØ±": 4892,
      "ĠØ¨Ø¨": 4893,
      "ÙĪØ§ØµÙĦ": 4894,
      "Î½": 4895,
      "ĠØ§ÙĦØ£Ø³Ø¨ÙĪØ¹": 4896,
      "ilon": 4897,
      "Ø§ÙĥØ²": 4898,
      "ĠØ±ÙħØ¶Ø§ÙĨ": 4899,
      "\\_": 4900,
      "Ġsurface": 4901,
      "ĠØ§ÙĦÙħØ±ØŃÙĦØ©": 4902,
      "Ġissue": 4903,
      "AG": 4904,
      "ÙĪØ¨Ø§Øª": 4905,
      "^{-": 4906,
      "ĠØ§Ø±ØªÙģØ§Ø¹": 4907,
      "Ġothers": 4908,
      "ĠØ§ÙĦÙĥØ±ÙĬÙħ": 4909,
      "CC": 4910,
      "ĠØ§ÙĦØ²Ø±": 4911,
      "illed": 4912,
      "Ġaccording": 4913,
      "Ġcountry": 4914,
      "ev": 4915,
      "ĠØ¥ÙĦ": 4916,
      "Ø´ÙĤ": 4917,
      "ĠØ§ÙĦØ¥Ø®": 4918,
      "Ġthird": 4919,
      "Ġeffects": 4920,
      "ĠØ¥ÙĬØ¬": 4921,
      "Ġincreased": 4922,
      "ĠÙħØŃØ¯": 4923,
      "ĠØŃØ¨": 4924,
      "ĠØ§ÙĦØµØŃÙĬØ©": 4925,
      "Ø¨Ø§Ø±Ùĥ": 4926,
      "respond": 4927,
      "ĠØ³ÙĬÙĨ": 4928,
      "Ġland": 4929,
      "Ġ2008": 4930,
      "ĠÙĨÙĪÙģ": 4931,
      "ources": 4932,
      "Ġcou": 4933,
      ".'": 4934,
      "ĠÙĬÙĤØ¯Ùħ": 4935,
      "%)": 4936,
      "elt": 4937,
      "ĠÙĦØ±": 4938,
      "ĠÙĬØ¹ØªØ¨Ø±": 4939,
      "icy": 4940,
      "Ġobserved": 4941,
      "Ġmeasure": 4942,
      "Ø§ÙĤÙĬ": 4943,
      "Ø±ÙĬØ¯Ø©": 4944,
      "alt": 4945,
      "à¸": 4946,
      "Ġdoesn": 4947,
      "ĠÙĪÙĦÙĪ": 4948,
      "ĠØ§ÙĦØ¨Ø±ÙĬØ·": 4949,
      "ĠØ§ÙĦØ¹Ø§ÙĦÙħÙĬ": 4950,
      "ÙģÙĩ": 4951,
      "ĠØ§ÙĦÙħØ¹Ø§Ø±": 4952,
      "ĠØ§ÙĦØ·Ø§ÙĤØ©": 4953,
      "Ġconduct": 4954,
      "Ġsocial": 4955,
      "ØªÙħØ§Ø¯": 4956,
      "Ġcannot": 4957,
      "ey": 4958,
      "ĠØ§ÙĦØ¬Ø§ÙħØ¹Ø©": 4959,
      "ĠØ§ÙĦÙģÙĨØ§ÙĨ": 4960,
      "Ġrather": 4961,
      "\"}).": 4962,
      "Ġpercent": 4963,
      "Ġyet": 4964,
      "ĠØ§ÙĦØ°Ùī": 4965,
      "Ġtre": 4966,
      "ĠØ§ÙĦÙħØ§Ø¶ÙĬØ©": 4967,
      "Ġmonths": 4968,
      "Ġincrease": 4969,
      "ĠØ¢ÙĦ": 4970,
      "ĠÙĤÙĪØ©": 4971,
      "ĠØ§Øº": 4972,
      "Ð°Ð": 4973,
      "Ø¶Ø¨": 4974,
      "Ġcomplex": 4975,
      "ĠØµÙĪØ±Ø©": 4976,
      "ĠÙħØ§Ø±": 4977,
      "Ġparticip": 4978,
      "Ġmind": 4979,
      "ĠÙĨÙĤØ·Ø©": 4980,
      "ĠGen": 4981,
      "ÙĪØ¸": 4982,
      "ava": 4983,
      "ÙĤÙĬÙĬÙħ": 4984,
      "ĠØ§ÙĦØ¯ÙĪØ±ÙĬ": 4985,
      "ÙĩÙĬÙĦ": 4986,
      "Ġmoney": 4987,
      "ĠÙĪØ¹ÙĨ": 4988,
      "ĠÙĬÙĨØª": 4989,
      "ĠÙĪÙģÙĤ": 4990,
      "Ġsection": 4991,
      "Ġcy": 4992,
      "Ø±ÙĬÙĥØ§": 4993,
      "79": 4994,
      "Ġprotein": 4995,
      "ground": 4996,
      "ĠRep": 4997,
      "ÙĬÙħÙĬÙĨ": 4998,
      "ĠØªØ¹Ø±Ùģ": 4999,
      "ĠØ§ÙĦØ¹ÙħÙĦÙĬØ©": 5000,
      "time": 5001,
      "Ø´Ø±Ø§Øª": 5002,
      "ĠØ§ÙĦØ³ÙĪØ±ÙĬØ©": 5003,
      "eq": 5004,
      "ĠØ§ÙĦÙĦØºØ©": 5005,
      "ĠØ£ÙĩÙħÙĬØ©": 5006,
      "Ø±ÙĬØ¨Ø©": 5007,
      "Ø±ÙĬÙħØ©": 5008,
      "ĠØ§ÙĦØ§ØŃØªÙĦØ§ÙĦ": 5009,
      "ĠÙħØ´ÙĬØ±Ø§": 5010,
      "Ġstructure": 5011,
      "Ġpick": 5012,
      "Ø§ÙģØŃØ©": 5013,
      "ÙħÙĪØ°": 5014,
      "now": 5015,
      "ze": 5016,
      "bib": 5017,
      "78": 5018,
      "ĠØ¥Ø¨Ø±": 5019,
      "minist": 5020,
      "ĠØ£ÙĨØª": 5021,
      "rix": 5022,
      "ØªÙĦØ§Ùģ": 5023,
      "ĠØ§ÙĦØ¹Ø³ÙĥØ±ÙĬØ©": 5024,
      "ĠEn": 5025,
      "ache": 5026,
      "ĠØ§ÙĦØ¯ÙĬÙħÙĤØ±Ø§Ø·": 5027,
      "Ø±ÙģØ¶": 5028,
      "roid": 5029,
      "Ø±ÙĬØ§Øª": 5030,
      "ball": 5031,
      "Ġjob": 5032,
      "ĠÙĦØ¬": 5033,
      "DE": 5034,
      "Ġcut": 5035,
      "order": 5036,
      "52": 5037,
      "ependent": 5038,
      "So": 5039,
      "ruction": 5040,
      "raft": 5041,
      "Ġsite": 5042,
      "Ġclear": 5043,
      "ĠØŃÙĥÙĪÙħØ©": 5044,
      "orld": 5045,
      "Res": 5046,
      "ĊĠĠĠĠĠĠĠĠĠĠĠĠĠĠĠĠĠĠĠ": 5047,
      "ĠØªØ±ÙĥÙĬØ§": 5048,
      "Ġsoft": 5049,
      "ĠØ¨Ø®": 5050,
      "Id": 5051,
      "Type": 5052,
      "ceed": 5053,
      "ĠÙħØŃØ§ÙģØ¸Ø©": 5054,
      "Ø§Ø³Ø·Ø©": 5055,
      "Ø¹ÙĦÙĨØª": 5056,
      "~~": 5057,
      "ĠØ±ÙĬØ§ÙĦ": 5058,
      "ogen": 5059,
      "ĠØ³Ø¨ØªÙħØ¨Ø±": 5060,
      "Ø±ÙĬØ¹Ø©": 5061,
      "Ġbase": 5062,
      "Ø³ØªØ§Ø°": 5063,
      "Ġtemper": 5064,
      "ØªØ²": 5065,
      "ĠØ³Ø¬ÙĦ": 5066,
      "artment": 5067,
      "Ø±Ùħ": 5068,
      "ules": 5069,
      "Ø·ÙĦØ¹": 5070,
      "ĠGod": 5071,
      "uk": 5072,
      "itch": 5073,
      "oph": 5074,
      "ĠYork": 5075,
      "Ġtaken": 5076,
      "Ø®Ø§Ø°": 5077,
      "Ġmembers": 5078,
      "Ġcontent": 5079,
      "vironment": 5080,
      "ÙĬØ±Ùĩ": 5081,
      "Ġnormal": 5082,
      "Ġseason": 5083,
      "irm": 5084,
      "ĠØŃÙĬØ§Ø©": 5085,
      "Ġid": 5086,
      "ĠThen": 5087,
      "ches": 5088,
      "Ø±ÙĬØ¶": 5089,
      "Ġsignal": 5090,
      "sigma": 5091,
      "Ġblood": 5092,
      "Ġsource": 5093,
      "Ø§Ø¹Ø´": 5094,
      "ĠØ³ÙĪÙĤ": 5095,
      "Ġcompon": 5096,
      "Ġvarious": 5097,
      "Ġstandard": 5098,
      "Ø±ÙĬØ³": 5099,
      "Ġperformed": 5100,
      "td": 5101,
      "Ġwhole": 5102,
      "ĠÙĬØªØ¹ÙĦÙĤ": 5103,
      "ĠÙĤØ§Ø¦": 5104,
      "ĠØ§ÙĦØºØ°": 5105,
      "ÙĪØªØ±": 5106,
      "ING": 5107,
      "Î¹": 5108,
      "Ġmatter": 5109,
      "Ġflow": 5110,
      "abor": 5111,
      "Ġuser": 5112,
      "ĠØ§ÙĦØ£Ùĥ": 5113,
      "ĠØ´ÙħØ§ÙĦ": 5114,
      "ĠØ§ÙĦÙĨÙģØ³": 5115,
      "Ġfactors": 5116,
      "ĠØ§ÙĦÙĥÙĩØ±Ø¨": 5117,
      "ĠÙĬÙĪÙĨÙĬÙĪ": 5118,
      "ĠÙĨØ²": 5119,
      "ixed": 5120,
      "ĠÙĩØ§ØªÙģ": 5121,
      "ĠØ§ÙĦØ¥Ø¯Ø§Ø±Ø©": 5122,
      "ĠÙĪØ§ÙĦÙĦÙĩ": 5123,
      "ĠØ§ÙĦØŃØ³": 5124,
      "ĠØ§ÙĦÙĪØ¶Ø¹": 5125,
      "off": 5126,
      "ached": 5127,
      "ĠÙĦÙĩØ°Ùĩ": 5128,
      "ged": 5129,
      "ĠØ¨Ø¯Ø£": 5130,
      "bt": 5131,
      "Ġagre": 5132,
      "ĠÙĪÙĬØ±": 5133,
      "Ø¶ÙĬÙģ": 5134,
      "ĠØ§ÙĦÙĪØŃ": 5135,
      "ĠØ§ÙĦÙħØºØ±Ø¨": 5136,
      "Ġdri": 5137,
      "ĠØ¨ÙĦØ¯": 5138,
      "Ġspecial": 5139,
      "ĠÙĬØ¬Ø¹ÙĦ": 5140,
      "ĠFig": 5141,
      "ĠÙģØ¥ÙĨÙĩ": 5142,
      "ĠÙģÙĩÙĬ": 5143,
      "ortun": 5144,
      "ĠØªÙĨØ§ÙĪÙĦ": 5145,
      "ÙħÙħ": 5146,
      "ĠØ§ÙĦÙħØ·ÙĦ": 5147,
      "ĠØ¨ÙĨÙĬ": 5148,
      "Ġquant": 5149,
      "ĠØ£ØµØŃØ§Ø¨": 5150,
      "Ġcorre": 5151,
      "ĠØ§ÙĦÙĪØµÙĪÙĦ": 5152,
      "Ġhalf": 5153,
      "ĠØµØ§ÙĦØŃ": 5154,
      "ĠØ£ÙĨÙĪØ§Ø¹": 5155,
      "ĠØ§ÙĦÙĪØ±": 5156,
      "ÙĨØ¯ÙĪÙĤ": 5157,
      "equ": 5158,
      "ÙĬØ±ÙĪØ³": 5159,
      "ĠØ§ÙĦÙĨÙĪ": 5160,
      "rr": 5161,
      "ĠØ¨ÙĬØ¹": 5162,
      "ĠØ³ÙĬØ¯": 5163,
      "ĠÙĤØªÙĦ": 5164,
      "ÙĦÙĦ": 5165,
      "ĠÙħØ¤Ùĥ": 5166,
      "Ø±ÙĪØŃ": 5167,
      "ĠØ§ÙĦØŃØ¯ÙĪØ¯": 5168,
      "Ċĉĉĉ": 5169,
      "ĠØ£Ø¹ÙĦÙī": 5170,
      "ĠÙĪÙĬÙħÙĥÙĨ": 5171,
      "ĠWith": 5172,
      "ĠØ§ÙĦØ®ÙĬØ§Ø±Ø§Øª": 5173,
      "string": 5174,
      "ĠØ¨Ø§Ø¹": 5175,
      "ĠØªØ³Ùħ": 5176,
      "Ø¨Ø¹Ø¯": 5177,
      "ucle": 5178,
      "Ġclin": 5179,
      ")(": 5180,
      "ÙģÙĨ": 5181,
      "icult": 5182,
      "Ġshowed": 5183,
      "Ġversion": 5184,
      "ÙĩØ±Ø¬Ø§ÙĨ": 5185,
      "ĠØ§Ø°Ø§": 5186,
      "ĠØºØ²Ø©": 5187,
      "Ġsystems": 5188,
      "ĠØ¶Ø¹": 5189,
      "Ø®ÙģØ¶": 5190,
      "Ġcalcul": 5191,
      "Ø±Ø§Ø¹": 5192,
      "Ġsix": 5193,
      "ĠØ¥ÙĨØªØ§Ø¬": 5194,
      "Ġdam": 5195,
      "ĠÙģØ§ÙĨ": 5196,
      "ĠØ§Ø®ØªÙĬØ§Ø±": 5197,
      "ĠÙĤØ·Ø±": 5198,
      "Ġcity": 5199,
      "sqrt": 5200,
      "ĠØ§ÙĦØŃÙħ": 5201,
      "ĠØ§ÙĦØ¹Ø§ØµÙħØ©": 5202,
      "ĠSee": 5203,
      "ÙĪØŃØ©": 5204,
      "Ġblack": 5205,
      "ĠØ§ÙĦØ¨ÙĬØª": 5206,
      "ĠØ§ÙĦØ£Øº": 5207,
      "ĠØ¬ÙĩØ©": 5208,
      "ĠØ§ÙĦÙĨØ§Ø±": 5209,
      "ĠØªÙĪÙģÙĬØ±": 5210,
      "ĠÙħÙĨØ§Ø·ÙĤ": 5211,
      "51": 5212,
      "ĠØ±ÙģØ¶": 5213,
      "ĠÙħØªÙĨ": 5214,
      "Ġbelow": 5215,
      "ĠØ¨Ø´Ø±": 5216,
      "ĠChrist": 5217,
      "Ċĉĉĉĉ": 5218,
      "idered": 5219,
      "arent": 5220,
      "Ġshows": 5221,
      "ĠØ§ÙĦØ¯Ø³Øª": 5222,
      "ĠØ§ÙĦÙħØ±Ø¶": 5223,
      "Ġ31": 5224,
      "ÙħÙĪØ°Ø¬": 5225,
      "ĠØ§ÙĦÙħØ§Ø¡": 5226,
      "Ø§Ø±Ùĩ": 5227,
      "ÂłÂł": 5228,
      "ĠØ§ÙĦÙħØ¨Ø§Ø±Ø§Ø©": 5229,
      "mathrm": 5230,
      "Ġnear": 5231,
      "bit": 5232,
      "Ġmultiple": 5233,
      "Ġactually": 5234,
      "ero": 5235,
      "ĠÙħÙĥØªØ¨": 5236,
      "Ġlimit": 5237,
      "Ø§Ø¬Ø¦": 5238,
      "Ø¨Ø±Ø§ÙĬØ±": 5239,
      "Ġprior": 5240,
      "ief": 5241,
      "ÙĤÙĬØ©": 5242,
      "ĠØ¨Ø§ÙĦØ¯": 5243,
      "ĠMy": 5244,
      "ÙĪØ³Ùģ": 5245,
      "Ġclos": 5246,
      "ilt": 5247,
      "ĠØªÙĦÙĤ": 5248,
      "Ġer": 5249,
      "ÙĦØ§ÙħØ©": 5250,
      "ĠØ§ÙĦØ·ÙģÙĦ": 5251,
      "Sh": 5252,
      "gamma": 5253,
      "Ø´Ø¯": 5254,
      "Ġcorrespond": 5255,
      "imum": 5256,
      "ĠØ±Ø¶ÙĬ": 5257,
      "Ġsyn": 5258,
      "ensity": 5259,
      "ĠÙħØ¹Ø§": 5260,
      "Ġdemon": 5261,
      "onal": 5262,
      "ĠØ§ÙĦØ®ÙĦÙĬØ¬": 5263,
      "ÙĪØ²ÙĬØ¹": 5264,
      "Ø¹Ùĩ": 5265,
      "Ġfood": 5266,
      "ĠØ§ÙĦÙħÙĪØ§Ø¯": 5267,
      "ĠØ§ÙĦØ´Ø±Ø·Ø©": 5268,
      "Ġpoints": 5269,
      "Ġregard": 5270,
      "ØªÙĪÙĬ": 5271,
      "Ġbehav": 5272,
      "ĠFl": 5273,
      "ÙĨÙĬÙģ": 5274,
      "ĠØ®Ø§ÙĦØ¯": 5275,
      "inary": 5276,
      "ĠÙĪØ¶": 5277,
      "Ø´Ø±Ø©": 5278,
      "ada": 5279,
      "Ġconsidered": 5280,
      "CH": 5281,
      "ĠØ§ÙĦØ³Ø§Ø¨ÙĤØ©": 5282,
      "ĠØ®Øµ": 5283,
      "ĠCent": 5284,
      "ĠØ¹ÙĬÙĨ": 5285,
      "ĠPat": 5286,
      "ĠÙĥÙĬ": 5287,
      "Ø§ÙĦØº": 5288,
      "ĠØ¨Ø¯Ø£Øª": 5289,
      "Ġfocus": 5290,
      "à¤": 5291,
      "ĠØ·Ø±": 5292,
      "OP": 5293,
      "Ġbreak": 5294,
      "ĠØ§ÙĦÙĨØ³": 5295,
      "Ġpropos": 5296,
      "ĠBy": 5297,
      "omet": 5298,
      "ĠØ§ÙĦØŃØ¬": 5299,
      "ĠÙĬØµÙĦ": 5300,
      "ĠØ£Ø¹Ø¶Ø§Ø¡": 5301,
      "Ġheld": 5302,
      "Ġalmost": 5303,
      "ideo": 5304,
      "Ø¨Ø±Ø©": 5305,
      "load": 5306,
      "ØªÙģØ¹": 5307,
      "ĠÙĪØ§ÙĦÙħØ¹": 5308,
      "ĠØ§ÙĦØ£Ø¬ÙĨ": 5309,
      "ĠØ¯Ø®ÙĦ": 5310,
      "Ġdisease": 5311,
      "ÙģÙĬØ§Øª": 5312,
      "ession": 5313,
      "Ø§Ø¨Ø§": 5314,
      "Ġanything": 5315,
      "Ø³Ø¯": 5316,
      "ĠØ¬ÙĩØ§Ø²": 5317,
      "date": 5318,
      "Ġrequest": 5319,
      "Ġviol": 5320,
      "Ġ(*": 5321,
      "Ø§ÙĦØ§": 5322,
      "ĠĠĠĠĠĠĠĠĠĠ": 5323,
      "ĠÙĤÙĬÙħØ©": 5324,
      "Ġdetect": 5325,
      "ĠØ§ÙĦÙħÙĪØ¬": 5326,
      "ÙĥÙĨÙĪÙĦÙĪØ¬ÙĬØ§": 5327,
      "ÙĪÙĬØ§": 5328,
      "Ġapproach": 5329,
      "ĠØ£ÙĦÙħ": 5330,
      "ÙĪØ§ÙĨÙĬÙĨ": 5331,
      "cular": 5332,
      "ĠØ¯ÙĬØ³": 5333,
      "ĊĊĠĠĠĠĠĠĠ": 5334,
      "Ġnothing": 5335,
      "ĠØ§ÙĦØ¹ÙĦØ§ÙĤØ§Øª": 5336,
      "ĠÙĥØ§ÙħÙĦ": 5337,
      "ĠØ£Ùĩ": 5338,
      "Ġbenef": 5339,
      "but": 5340,
      "Ø´Ø§Ø±ÙĥØ©": 5341,
      "Ġ..": 5342,
      "Ø·ÙĪÙĬØ±": 5343,
      "Ġut": 5344,
      "ĠØ§ÙĦÙħØ§Ø¯Ø©": 5345,
      "Ø´Ø·Ø©": 5346,
      "ĠØ§ÙĦÙĤÙĨ": 5347,
      "Ġmax": 5348,
      "ĠØ·ÙĦ": 5349,
      "uly": 5350,
      "Ġq": 5351,
      "ĠØªØ±ÙĬØ¯": 5352,
      "ike": 5353,
      "Ø³Ø·Ø³": 5354,
      "ama": 5355,
      "ĠØ§ÙĦØ£ÙĪØ³Ø·": 5356,
      "ĠØ§ÙĦØ³ÙĪØ¯Ø§ÙĨ": 5357,
      "ĠÙĤØ³Ùħ": 5358,
      "Ġconcer": 5359,
      "ĠØ§ÙĦØ£ÙĥØ«Ø±": 5360,
      "IM": 5361,
      "Ġconcent": 5362,
      "ĠØ´Ø±ÙĥØ§Øª": 5363,
      "ĠPar": 5364,
      "ĠSy": 5365,
      "AA": 5366,
      "Ø§Ø±Ø³Ø©": 5367,
      "umber": 5368,
      "net": 5369,
      "ĠÙĪÙħØ±": 5370,
      "ĠÙĪØ¹Ø¯Ùħ": 5371,
      "ĠØ£ÙħÙĬØ±": 5372,
      "pping": 5373,
      "Ġmarket": 5374,
      "ĠØ§ÙĦØŃØ¨": 5375,
      "ĠÙħØ¯Ùī": 5376,
      "Ġpositive": 5377,
      "uration": 5378,
      "}{\\": 5379,
      "Ġcreate": 5380,
      "Ġlikely": 5381,
      "aff": 5382,
      "List": 5383,
      "Ġseries": 5384,
      "Ø·Ùħ": 5385,
      "span": 5386,
      "Ø§ÙĦÙĬØ§Øª": 5387,
      "ĠØ¨ÙĪØ§Ø³Ø·Ø©": 5388,
      "ĠØ§ÙĦØ£ÙĦÙħ": 5389,
      "Ġpubl": 5390,
      "Ġmoment": 5391,
      "ĠÙħØ§ÙĬÙĪ": 5392,
      "ĠØ§ÙĦÙĥØ±": 5393,
      "ĠØ®ÙĦÙĤ": 5394,
      "Ġincluded": 5395,
      "lim": 5396,
      "Ġclose": 5397,
      "ĠÙĬÙĪÙĦÙĬÙĪ": 5398,
      "Ġsus": 5399,
      "Ø¨ÙĪ": 5400,
      "gment": 5401,
      "anguage": 5402,
      "ÙĤÙī": 5403,
      "ĠSte": 5404,
      "ĠĠĠĠĠĠĠĠĠĠĠĠĠĠĠĠĠĠĠĠĠĠĠĠĠĠĠĠĠĠĠĠĠĠĠĠĠĠĠĠĠĠĠĠĠĠĠĠĠĠĠĠĠĠĠĠĠĠĠĠĠĠĠĠĠĠĠĠĠĠĠĠĠĠĠĠĠĠĠĠĠĠĠĠĠĠĠĠĠĠĠĠĠĠĠĠĠĠĠĠĠĠĠĠĠĠĠĠĠĠĠĠĠĠĠĠĠĠĠĠĠĠĠĠĠĠĠĠ": 5405,
      "ÙĥØ°Ø§": 5406,
      "Ġtrad": 5407,
      "ĠÙģÙĩÙħ": 5408,
      "ĊĊĊ": 5409,
      "iding": 5410,
      "iet": 5411,
      "Ġspect": 5412,
      "ĠØªØºÙĬÙĬØ±": 5413,
      "ĠØ³Ø¹ÙĬØ¯": 5414,
      "That": 5415,
      "ĠÙģÙħÙĨ": 5416,
      "ĠØ·ÙĪÙĬÙĦØ©": 5417,
      "Ġheart": 5418,
      "Ġhistory": 5419,
      "En": 5420,
      "ØµØ§ÙĦØ§Øª": 5421,
      "ĠAss": 5422,
      "String": 5423,
      "ĠØ®Ø¯ÙħØ§Øª": 5424,
      "ĠØ£ÙĨÙĩÙħ": 5425,
      "Ġexperience": 5426,
      "Ar": 5427,
      "SS": 5428,
      "Ġste": 5429,
      "ĠÙħØ¹ÙĦÙĪÙħØ§Øª": 5430,
      "Ġweight": 5431,
      "Ġtable": 5432,
      "ster": 5433,
      "ĠÙħÙĦÙĥ": 5434,
      "Ġfactor": 5435,
      "Ġdig": 5436,
      "ĠØ£Ø®Ø¨Ø§Ø±": 5437,
      "63": 5438,
      "Ġfilm": 5439,
      "ĠÙĨÙĪÙģÙħØ¨Ø±": 5440,
      "Ġsex": 5441,
      "ĠØ§ÙĦØ¥ÙĨØªØ±ÙĨØª": 5442,
      "ĠÙĬØŃØ¯Ø«": 5443,
      "Ġeval": 5444,
      "Ġcross": 5445,
      "ÙĬÙĤØ©": 5446,
      "Ġobtained": 5447,
      "ĠØ§ÙĤØªØµ": 5448,
      "ires": 5449,
      "Ġhom": 5450,
      "ĠÙĪØŃØªÙī": 5451,
      "Ø§Ø±ÙĤ": 5452,
      "ĠØ¨ÙĩØ¯Ùģ": 5453,
      "ĠØ§ÙĦÙĪØ²Ø§Ø±Ø©": 5454,
      "ØªØ±Ø§Ùĥ": 5455,
      "ĠØ§ÙĦØ¬Ø§ÙĨØ¨": 5456,
      "90": 5457,
      "ĠØŃÙĪØ§ÙĦÙĬ": 5458,
      "ĠØªØŃØ¯ÙĬØ¯": 5459,
      "ĠØªØ±Ø§ÙħØ¨": 5460,
      "isc": 5461,
      "+\\": 5462,
      "Ġmakes": 5463,
      "ĠØ±ÙĪØ³ÙĬØ§": 5464,
      "ĠØ§ÙĦØºØ±Ø¨ÙĬØ©": 5465,
      "ÙĨØ³Ø§": 5466,
      "where": 5467,
      "Ġoccur": 5468,
      "001": 5469,
      "Ġsil": 5470,
      "Ġ((": 5471,
      "ĠØ¨Ø§ÙĦØ´": 5472,
      "Ġaffect": 5473,
      "Ġadded": 5474,
      "ĠØ¨Ø§Ø³ØªØ®Ø¯Ø§Ùħ": 5475,
      "Ø¶Ùī": 5476,
      "ÙĪÙĨÙĩ": 5477,
      "ĠØ§ÙĦØŃØ²Ø¨": 5478,
      "ÙĪØ§Ø¹Ø¯": 5479,
      "ĠØ§ØŃØ¯": 5480,
      "ÙģØ§ÙĪØ¶": 5481,
      "ĠØªÙĤØ±ÙĬØ±": 5482,
      "ĠØ§ÙĦÙģÙĦØ³Ø·ÙĬÙĨÙĬ": 5483,
      "ĠØ¨ÙĩØ°Ùĩ": 5484,
      "ĠØ´Ø¨ÙĥØ©": 5485,
      "Ø«ÙħØ±": 5486,
      "ips": 5487,
      "ĠÙĪØ£ÙĥØ¯": 5488,
      "cing": 5489,
      "ÙħØ¯ÙĬÙĨØ©": 5490,
      "ĠHis": 5491,
      "ĠØ§ÙĦÙħØ¯ÙĨÙĬ": 5492,
      "rown": 5493,
      "Ø§Ø¨Ø±": 5494,
      "Ġconsist": 5495,
      "ÙĤÙĪÙħ": 5496,
      "ĠØ§ÙĦØ¬Ø±": 5497,
      "ĠØ¯Ø§Ø±": 5498,
      "ĠâĢĺ": 5499,
      "ĠÙĤØ§ÙĦØª": 5500,
      "Ġdifficult": 5501,
      "ĠÙĪØ§Øª": 5502,
      "ĠØŃØ¬Ùħ": 5503,
      "Ġill": 5504,
      "ĠÙĪØªØ³": 5505,
      "ĠÙĬÙĪÙħØ§": 5506,
      "ĠÙĤÙĦØ¨": 5507,
      "ÙĦÙĬØ¨": 5508,
      "Ø§Ø¦Ø¹Ø©": 5509,
      "ĠØ¯Ø¨ÙĬ": 5510,
      "Val": 5511,
      "Ġreceived": 5512,
      "ĠÙħÙĪØ¬": 5513,
      "ops": 5514,
      "ĠØ§ÙĦÙħØªØ¹ÙĦÙĤØ©": 5515,
      "ĠMan": 5516,
      "><": 5517,
      "ØªÙĦÙĥ": 5518,
      "Ø§Ø¬Ø±": 5519,
      "Ġentire": 5520,
      "ÙĥØ±Ø§": 5521,
      "ĠØ§ÙĦØ¥Ø¯": 5522,
      "Ġnat": 5523,
      "comm": 5524,
      "ĠØ§ÙĦØ¬Ø²Ø§Ø¦Ø±": 5525,
      "87": 5526,
      "amed": 5527,
      "ĠØ¬ÙĨÙĬÙĩ": 5528,
      "itting": 5529,
      "Ġfuture": 5530,
      "ĠØ§ÙĦØ£ÙħÙĪØ±": 5531,
      "ĠØ£Ø³Ø±": 5532,
      "ĠØªØ³Ø¬ÙĬÙĦ": 5533,
      "ĠÙĨÙģØ³ÙĩØ§": 5534,
      "Ġminutes": 5535,
      "Ġrat": 5536,
      "ÙĬÙģØ§": 5537,
      "Ġdevice": 5538,
      "year": 5539,
      "ĠÙĪØ¨Ø§ÙĦØªØ§ÙĦÙĬ": 5540,
      "Ø¹Ø²ÙĬØ²": 5541,
      "ties": 5542,
      "Ġeconom": 5543,
      "itten": 5544,
      "ĠØ·Ø§ÙĦØ¨": 5545,
      "Ġdemonstr": 5546,
      "Figure": 5547,
      "Ġlooking": 5548,
      "Â±": 5549,
      "Ġfront": 5550,
      "Ġregion": 5551,
      "Ø§ÙħÙĨ": 5552,
      "Ø®ØµØµØ©": 5553,
      "ÙĤÙĪÙĤ": 5554,
      "ĠØ§ÙĦØ²ÙĪØ¬": 5555,
      "AB": 5556,
      "Ġfav": 5557,
      "ĠÙħØµØ§Ø¯Ø±": 5558,
      "Ġproperty": 5559,
      "ÙģÙĬÙģ": 5560,
      "Ġdecre": 5561,
      "ĠØ¥Ø·ÙĦØ§ÙĤ": 5562,
      "Ġdat": 5563,
      "Ġdrug": 5564,
      "rho": 5565,
      "Ġcause": 5566,
      "ĠØ¨ÙĨØ³Ø¨Ø©": 5567,
      "ros": 5568,
      "ĠØ¥ØŃØ¯Ùī": 5569,
      "ĠØªØŃÙħÙĦ": 5570,
      "Ġcustom": 5571,
      "ĠÙĦÙĦÙħÙĨ": 5572,
      "Ġcamp": 5573,
      "Ġmagn": 5574,
      "ĠØ§ÙĦØ¹ÙħØ±": 5575,
      "Ġparent": 5576,
      "ĠØ§ÙĦÙħØ³ØªÙĤØ¨ÙĦ": 5577,
      "ĠÙĪÙħØŃ": 5578,
      "Ġmut": 5579,
      "Cont": 5580,
      "âĢ¦": 5581,
      "ĠØ¨ÙĤÙĬ": 5582,
      "Ġstory": 5583,
      "ÙĪØ±Ùĩ": 5584,
      "ĠØ§ÙĦØ´Ø®ØµÙĬØ©": 5585,
      "Ø®Ø¯ÙħØ©": 5586,
      "ØŃÙĬØ©": 5587,
      "ĠØ´Ùĥ": 5588,
      "ĠIN": 5589,
      "ĠÙĦÙĦØ§Ø³Øª": 5590,
      "Ġtrying": 5591,
      "etition": 5592,
      "Ø³Ø§Ø¯": 5593,
      "ĠØŃØ±Ø¨": 5594,
      "Ø§Ø¦Ø²": 5595,
      "struct": 5596,
      "Ġsolution": 5597,
      "Ġattack": 5598,
      "resh": 5599,
      "Ġang": 5600,
      "ÙĥØ§ÙĨÙĬØ©": 5601,
      "ĠÙħØ¬Ø±Ø¯": 5602,
      "ÙĦÙĨ": 5603,
      "Ġbelieve": 5604,
      "ĠAm": 5605,
      "Ġrelated": 5606,
      "see": 5607,
      "^\\": 5608,
      "ĠØ·Ø±Ùģ": 5609,
      "ply": 5610,
      "ĠØ¨ÙĨÙģØ³": 5611,
      "ĠÙĪØ³Øª": 5612,
      "ĠÙĪØ¥Ø°Ø§": 5613,
      "ĠØ§ÙĦØ¬ÙħÙĩÙĪØ±ÙĬØ©": 5614,
      "ĠGe": 5615,
      "........": 5616,
      "ĠMed": 5617,
      "Ø£ÙĦØ©": 5618,
      "ĠÙģØ¨Ø±Ø§ÙĬØ±": 5619,
      "ĠAN": 5620,
      "ĠÙĥØ«ÙĬØ±Ø©": 5621,
      "ii": 5622,
      "ĠØ¹Ø±Ùģ": 5623,
      "ĠØªØµÙĦ": 5624,
      "Ġcontr": 5625,
      "Ġintegr": 5626,
      "ulated": 5627,
      "ĠØ§ÙĦÙħÙĨØ´": 5628,
      "ĠÙĪØ¹ÙĨØ¯": 5629,
      "rec": 5630,
      "Ġapplication": 5631,
      "$-": 5632,
      "Ø·Ø±Ø§Ùģ": 5633,
      "ĠÙĤÙĪÙĦ": 5634,
      "Ġstring": 5635,
      "ĠEurope": 5636,
      "lying": 5637,
      "ÙħÙĨØ©": 5638,
      "aged": 5639,
      "95": 5640,
      "ĠÙĦØªÙĨ": 5641,
      "ĠØ§ÙĦÙĨØµ": 5642,
      "Ġpaper": 5643,
      "ĠMc": 5644,
      "ĠÙħØ±Ø¶": 5645,
      "ĠØ§ÙĦØ§Ùģ": 5646,
      "ĠÙĦÙĦØ¬": 5647,
      "Ø±ÙĬØ§": 5648,
      "html": 5649,
      "ĠØ®ÙĬØ±": 5650,
      "Îµ": 5651,
      "ĠÙħØªØ±": 5652,
      "oud": 5653,
      "ĠØ§ÙĦØ¥ÙĨØª": 5654,
      "ĠMore": 5655,
      "ĠØªØ£Ø«ÙĬØ±": 5656,
      "ĠØ´ÙĬØ¦Ø§": 5657,
      "ternal": 5658,
      ":\"": 5659,
      "ĠØ§ÙĦØ§ÙĤØªØµØ§Ø¯": 5660,
      "Ġdefined": 5661,
      "ĠÙĬØ£ØªÙĬ": 5662,
      "ĠØ§ÙĦÙħØ¤ØªÙħØ±": 5663,
      ")*": 5664,
      "ĠØ¥Ø³": 5665,
      "chie": 5666,
      "ØŃØ§Ø¡": 5667,
      "App": 5668,
      "ĠĠĠĠĠĠĠĠĠĠĠĠĠĠĠ": 5669,
      "Ġdecl": 5670,
      "Ġcoll": 5671,
      "ĠÙĪÙĬØ³": 5672,
      "/*": 5673,
      "------------": 5674,
      "value": 5675,
      "Ø§Ø¨Ø³": 5676,
      "ĠØŃÙħÙĦ": 5677,
      "ĠÙĤÙĦÙĬ": 5678,
      "body": 5679,
      "log": 5680,
      "ÙĬØ§Ø¡": 5681,
      "Ø¯ÙĬÙĤ": 5682,
      "Ø¨ÙĦØ©": 5683,
      "Ġur": 5684,
      "Ġrelationship": 5685,
      "FF": 5686,
      "ĠØ¨ÙĦØ§": 5687,
      "Ġjo": 5688,
      "62": 5689,
      "hel": 5690,
      "Ġwalk": 5691,
      "iqu": 5692,
      "ĠØ¯ÙĤÙĬÙĤØ©": 5693,
      "fully": 5694,
      "ges": 5695,
      "Ø±Ø´": 5696,
      "ĠÙĦÙĦØ·": 5697,
      "Ġcancer": 5698,
      "ĠØµØŃÙĬØŃ": 5699,
      "big": 5700,
      "ÙĪØ±Ùĥ": 5701,
      "ĠØªØ¬Ø§Ùĩ": 5702,
      "Ġstarted": 5703,
      "ĠÙĦÙĬØ¨": 5704,
      "ĠÙĪØ§ÙĦØ·": 5705,
      "ÙĬÙĦÙħ": 5706,
      "Ġhimself": 5707,
      "ĠÙħÙĨØ¸ÙħØ©": 5708,
      "Ġtax": 5709,
      "ĠØ¬Ø§ÙĨ": 5710,
      "Ø§Ø¬Ùħ": 5711,
      "ĠPol": 5712,
      "Ġworks": 5713,
      "tic": 5714,
      "Ġfall": 5715,
      "ĠØ¹Ø¨Ø¯Ø§ÙĦÙĦÙĩ": 5716,
      "Ġpo": 5717,
      "Ø§Ø¹Ø¨ÙĬÙĨ": 5718,
      "Ø¨ØºÙĬ": 5719,
      "ĠØ§ÙĦØ£ÙĪØ±ÙĪØ¨ÙĬ": 5720,
      "ØªØ¯ÙĬ": 5721,
      "Ġmillion": 5722,
      "ĠØ§ÙĦØ¯ÙĪØ±": 5723,
      "ĠØªØŃØ¯Ø«": 5724,
      "ĠØ§ÙĦÙĤØ¯Ø³": 5725,
      "Ġpan": 5726,
      "ĠØ§ÙĦØ¥Ø³Ø±Ø§Ø¦ÙĬÙĦÙĬ": 5727,
      "ĠÙħÙĦÙģ": 5728,
      "ĠÙĥØ±Ø©": 5729,
      "ĠØµÙĪØª": 5730,
      "ae": 5731,
      "ÙĪÙĦÙĬØ©": 5732,
      "Ġmaint": 5733,
      "ĠØ®ØµÙĪØµ": 5734,
      "Ġflu": 5735,
      "ĠØ¥Ø¨Ø±Ø§ÙĩÙĬÙħ": 5736,
      "Ġwin": 5737,
      "Ġeyes": 5738,
      "ĠØ¨Ø³ÙĬ": 5739,
      "Ġidea": 5740,
      "ÙĦÙĬØ³": 5741,
      "import": 5742,
      "Ġlength": 5743,
      "Ø§Ø¨ÙĦØ©": 5744,
      "ĠÙĬØº": 5745,
      "ĠØ§ÙĦØ³ÙĬØ§Ø±Ø§Øª": 5746,
      "],[@": 5747,
      "ĠØ³ÙĦÙĬÙħ": 5748,
      "ĠØ§ÙĦØªØ·Ø¨ÙĬÙĤ": 5749,
      "ĠØ§Ø®Øª": 5750,
      "IP": 5751,
      "ĠÙĥØ£Ø³": 5752,
      "ences": 5753,
      "Ġrespectively": 5754,
      "Ġloss": 5755,
      "ÙĬØ§Ø¨": 5756,
      "rs": 5757,
      "Ø°ÙĬØ©": 5758,
      "Ġpopulation": 5759,
      "aging": 5760,
      "pecially": 5761,
      "xi": 5762,
      "ĠØ¥Ø³Øª": 5763,
      "Ø§ÙĤØ¯": 5764,
      "ÙĪÙĤØ§Øª": 5765,
      "bed": 5766,
      "iting": 5767,
      "urch": 5768,
      "Ġmiss": 5769,
      "Ġblock": 5770,
      "ÙĪØ§ÙĬØ©": 5771,
      "dro": 5772,
      "Ġansw": 5773,
      "ĠØ¶Ø±ÙĪØ±Ø©": 5774,
      "Ġ=>": 5775,
      "ises": 5776,
      "oo": 5777,
      "ĠØ§ÙĦØªØ¹Ø§ÙħÙĦ": 5778,
      "ĠØ¹ÙĦÙĬÙĨØ§": 5779,
      "ĠJan": 5780,
      "ĠCor": 5781,
      "Col": 5782,
      "ÙĪÙĩØ§": 5783,
      "Ġassess": 5784,
      "obal": 5785,
      "85": 5786,
      "ĠÙĨØµÙģ": 5787,
      "ĠØ¨Ø±Ø§ÙħØ¬": 5788,
      "ĠØ¬ÙħØ¹": 5789,
      "ĠØ§ÙĦØªØ¬Ø§Ø±Ø©": 5790,
      "ĠØ§ÙĦØ£Ø®ÙĬØ±": 5791,
      "Ø¨ÙĬØ¨": 5792,
      "ĠÙĪØ§Ø®": 5793,
      "Ġperformance": 5794,
      "Ġfig": 5795,
      "ĠÙĪØ§ÙĦÙħØ±": 5796,
      "ĠTHE": 5797,
      "Ã£": 5798,
      "Ġdeal": 5799,
      "izing": 5800,
      "ĠÙĤØ§ÙħØª": 5801,
      "Ø°ÙĬÙĨ": 5802,
      "ĠÙĨØ¯": 5803,
      "ĠÙħØµØ¯Ø±": 5804,
      "ĠØ§ÙĦØªØ±Ø¨ÙĬØ©": 5805,
      "Ġaccept": 5806,
      "ĠØ¯ÙĬØ³ÙħØ¨Ø±": 5807,
      "ĠØ®Ùħ": 5808,
      "ĠØ§ÙĦÙħØ³ØªÙĪÙī": 5809,
      "Ġfoot": 5810,
      "plement": 5811,
      "Ø§Ø±ÙĨØ©": 5812,
      "ĠÙĪÙĦØ¯": 5813,
      "Ġwords": 5814,
      "ĠØ¨ØŃØ«": 5815,
      "Ġthus": 5816,
      "ese": 5817,
      "delta": 5818,
      "Ġ$(": 5819,
      "pose": 5820,
      "Ġaddress": 5821,
      "ĠØ´Ø£ÙĨ": 5822,
      "Ġsaw": 5823,
      "ili": 5824,
      "Ġbecame": 5825,
      "book": 5826,
      "Ø§ÙĦØ¥": 5827,
      "ĠÙĥÙĬÙģÙĬØ©": 5828,
      "Ġimmun": 5829,
      "ĠÙĪØ§ÙĦØ§ÙĨ": 5830,
      "umn": 5831,
      "like": 5832,
      "ĠNational": 5833,
      "mitted": 5834,
      "ĠÙĪØ§ÙĤ": 5835,
      "ĠÙĪÙħØ³": 5836,
      "Ġcommunity": 5837,
      "Ø§Ø²Ùħ": 5838,
      "ledge": 5839,
      "Ġnetwork": 5840,
      "Ġbegin": 5841,
      "ÙĪÙĦØ¯": 5842,
      "ĠÙĪÙĪ": 5843,
      "Ø§ÙĦÙĤ": 5844,
      "ems": 5845,
      "andom": 5846,
      "ĠØ£ÙĪØ±ÙĪØ¨Ø§": 5847,
      "Ġappl": 5848,
      "ĠØ§ÙħØ±": 5849,
      "ĠÙĤÙĨØ§Ø©": 5850,
      "Ø§ÙĦØ¨Ø§": 5851,
      "gree": 5852,
      "ĠQu": 5853,
      "rew": 5854,
      "Ġgetting": 5855,
      "Ġsimple": 5856,
      "ĠØ±Ø¨ÙħØ§": 5857,
      "Ġbound": 5858,
      "She": 5859,
      "ĠÙħÙĪÙĤÙģ": 5860,
      "ĠØ§ÙĦØ§ÙĤØªØµØ§Ø¯ÙĬ": 5861,
      "Ø·Ø§ÙĤ": 5862,
      "ĠØªØŃØªØ§Ø¬": 5863,
      "ĠØ£Ø®Ø°": 5864,
      "ĠØ§ÙĦÙĪØ§ØŃ": 5865,
      "ĠÙĤÙħ": 5866,
      "61": 5867,
      "verse": 5868,
      "ĠMe": 5869,
      "wise": 5870,
      "ening": 5871,
      "ĠÙĬÙħÙĨ": 5872,
      "Ø®ÙģØ§Ø¶": 5873,
      "ÙĤØ§Ø·": 5874,
      "ØŃÙĦ": 5875,
      "ĠØ§ÙĦØŃØ±ÙĥØ©": 5876,
      "ÙĦØ¹Ø§Ø¨": 5877,
      "ÙĬØ³Ø©": 5878,
      "Ø¨Ø§Ø±ÙĬØ§Øª": 5879,
      "ĠØ¨ÙĪØ±": 5880,
      "Ġsignificantly": 5881,
      "Ġ35": 5882,
      "Ġ2007": 5883,
      "Ø§Ø¶Ø©": 5884,
      "IR": 5885,
      "ÙĤØ±Ø©": 5886,
      "ĠØ§ÙĦØ«Ø§ÙĨ": 5887,
      "Ġhours": 5888,
      "oms": 5889,
      "ĠØ§ÙĦØ¬ÙĩØ§Ø²": 5890,
      "ĠØ§ÙĦØ§Ø«ÙĨÙĬÙĨ": 5891,
      "nu": 5892,
      "Ġinflu": 5893,
      "Ġintrodu": 5894,
      "Ø¨ÙĬÙĩ": 5895,
      "ols": 5896,
      "ĠØ§ÙĦØŃÙĥÙĪÙħÙĬØ©": 5897,
      "gl": 5898,
      "ĠØ£ÙĦØ§": 5899,
      "ĠØ§ÙĦØ«ÙĪØ±Ø©": 5900,
      "*,": 5901,
      "Ġdefin": 5902,
      "ÙĩÙĪÙĦØ©": 5903,
      "TR": 5904,
      "ĠØ§ÙĦØ¹ÙĦÙĬØ§": 5905,
      "Ġvia": 5906,
      "When": 5907,
      "All": 5908,
      "selves": 5909,
      "Ø§Ø¦ØŃØ©": 5910,
      "Ġprivate": 5911,
      "ĠØ£Ø¹ÙĦÙĨ": 5912,
      "ĠØ§ÙĦØ«ÙĨØ§Ø¦ÙĬØ©": 5913,
      "Ġvoid": 5914,
      "ĠØ§ÙĦØ¥ÙħØ§Ùħ": 5915,
      "more": 5916,
      "ĠØ¯Ø±Ø§Ø³Ø©": 5917,
      "Ġ||": 5918,
      "US": 5919,
      "ĠØ¹Ø¶ÙĪ": 5920,
      "ĠØ§ÙĦÙĦÙĤØ§Ø¡": 5921,
      "Ġparty": 5922,
      "Ġlearn": 5923,
      "ĠØ¨ØŃØ³Ø¨": 5924,
      "ĠØ²ÙĬØ§Ø±Ø©": 5925,
      "Ġstates": 5926,
      "Ø®ØµÙĪØµ": 5927,
      "Ġpain": 5928,
      "Ø¹ÙĪÙĨ": 5929,
      "ocr": 5930,
      "ĠGu": 5931,
      "Ø§Ø´Ø©": 5932,
      "Ø¹ÙħÙĦ": 5933,
      "ĠØ±Ø³Ø§ÙĦØ©": 5934,
      "EM": 5935,
      "overed": 5936,
      "isf": 5937,
      "ĠØ³ÙĪÙī": 5938,
      "ĠÙĥØ§Ø±": 5939,
      "ÐµÐ": 5940,
      "IL": 5941,
      "ĠÙĨØ§Ø¦Ø¨": 5942,
      "ĠÙĦØ§Øª": 5943,
      "Ġren": 5944,
      "ĠØ§ÙĨØ§": 5945,
      "ender": 5946,
      "ĠÙħØ³ÙĦØ³ÙĦ": 5947,
      "ÙģØ³ÙĬØ±": 5948,
      "ĠNot": 5949,
      "ocal": 5950,
      "Ġtoday": 5951,
      "ĠAct": 5952,
      "Ġwanted": 5953,
      "Ġappear": 5954,
      "Ġmother": 5955,
      "Ġdecision": 5956,
      "ĠØ§ÙĦØ¯Ø±Ø§Ø³Ø©": 5957,
      "ĠØ³ÙĬØªÙħ": 5958,
      "ĠDr": 5959,
      "Ġneeded": 5960,
      "ensive": 5961,
      "Ø¸Ø§ÙĩØ±": 5962,
      "inding": 5963,
      "ĠÙĤØ¶ÙĬØ©": 5964,
      "ĠØ£ØºØ³Ø·Ø³": 5965,
      "uth": 5966,
      "Ġlink": 5967,
      "ferences": 5968,
      "Ø§ÙĤØ¨Ø©": 5969,
      "ĠÙħØŃÙħÙĪØ¯": 5970,
      "ills": 5971,
      "ĠØ§ÙĦØªÙĨÙħÙĬØ©": 5972,
      "odes": 5973,
      "ana": 5974,
      "anced": 5975,
      "Ġinhib": 5976,
      "ÙĪØ§Ùģ": 5977,
      "ÙĬÙĦÙĬ": 5978,
      "Ġhost": 5979,
      "ĠØ§ÙĦØ¯ÙĨÙĬØ§": 5980,
      "ĠØ§ÙĦØ´ÙħØ³": 5981,
      "ĠÙĪØ£Ø´Ø§Ø±": 5982,
      "ĠÙħØ¤Ø³Ø³Ø©": 5983,
      "ĠØªÙĨØª": 5984,
      "Ġeff": 5985,
      "ĠÙĪØ§ÙĦØªÙĨ": 5986,
      "Ø·ÙĪØ±": 5987,
      "arc": 5988,
      "ĠØ§ÙĦØ¯Ø¹Ùħ": 5989,
      "ØŃØ¯ÙĬØ«": 5990,
      "Ø§Ø¨Ø¯": 5991,
      "86": 5992,
      "Ġadditional": 5993,
      "ĠØ§Ø®Ø¨Ø§Ø±": 5994,
      "ĠÙĪØªØ£": 5995,
      "ĠÙĦØ§Ø¹Ø¨": 5996,
      "atal": 5997,
      "ĠIm": 5998,
      "Ø°ÙĨ": 5999,
      "Ø§ÙĩØªÙħØ§Ùħ": 6000,
      "ĠØ§ÙĦØ¬Ø³Ùħ": 6001,
      "Ġbad": 6002,
      "Ø¹Ø§Ø¯": 6003,
      "Ø§ÙĪ": 6004,
      "ha": 6005,
      ")}": 6006,
      "Ġdest": 6007,
      "ĠØ§ÙĦÙħØŃÙĥÙħØ©": 6008,
      "ĠØ§ÙĦØ§Ø¯": 6009,
      "oved": 6010,
      "Ġchall": 6011,
      "ĠØ¯Ø®ÙĪÙĦ": 6012,
      "ÙĤÙĬÙĤÙĬ": 6013,
      "Ġmethods": 6014,
      "Ġcontact": 6015,
      "anks": 6016,
      "Ġtum": 6017,
      "ĠÙĤØ§Ø¦ÙĦØ§": 6018,
      "Ø§Ø±Ø¨Ø©": 6019,
      "ĠÙħÙĬÙĦ": 6020,
      "ØµÙĦØŃØ©": 6021,
      "Ø§ÙĪÙħØ©": 6022,
      "ØªØ±Ùģ": 6023,
      "ĠØ§ÙĦØªØ§ÙĦÙĬ": 6024,
      "inks": 6025,
      "IV": 6026,
      "Ġenvironment": 6027,
      "Ġlines": 6028,
      "Ġgrowth": 6029,
      "Ġlive": 6030,
      "Ġwhite": 6031,
      "ĠØ§ÙĦØµØŃÙĬ": 6032,
      "Ġdifference": 6033,
      "ogle": 6034,
      "Ø²Ø§Ø¨": 6035,
      "Ġadj": 6036,
      "ĠÙħØ¤ØªÙħØ±": 6037,
      "ĠÙĪØ§ÙĦØº": 6038,
      "ĠØ³Ø¹ÙĪØ¯": 6039,
      "Ġachie": 6040,
      "gress": 6041,
      "Se": 6042,
      "ĠØ§ÙĦÙĤÙĦØ¨": 6043,
      "ØªÙħÙĦ": 6044,
      "ĠÙħØŃØ§ÙģØ¸": 6045,
      "ĠØ§ÙĦØ³ÙĦØ·Ø§Øª": 6046,
      "ĠØ³Ø§Ø¹Ø§Øª": 6047,
      "ĠØ¹Øµ": 6048,
      "ĠÙĪÙĩØ°Ùĩ": 6049,
      "Ø³ÙħØ§Ø¡": 6050,
      "ĠØ§ÙĦÙĨÙĪØ¹": 6051,
      "Ġattempt": 6052,
      "ĠÙħØ±ØŃÙĦØ©": 6053,
      "Ø¯Ø§Ø®ÙĦ": 6054,
      "ĠØªØ¹ÙĦÙħ": 6055,
      "ĠØ§ÙĦØ¥Ø³ÙĦØ§ÙħÙĬ": 6056,
      "ÙĪØ¬Ø¨": 6057,
      "ĠMin": 6058,
      "ĠØµØºÙĬØ±Ø©": 6059,
      "ĠGerm": 6060,
      "ĠÙĦÙĥÙĨÙĩ": 6061,
      "ilities": 6062,
      "Ø§Ø·Ø©": 6063,
      "ĠØ¥Ø¬Ø±Ø§Ø¡": 6064,
      "ĠÙĦÙĦØ±": 6065,
      "iles": 6066,
      "Ø³Ø³": 6067,
      "Ġ(-": 6068,
      "istance": 6069,
      "Ġitself": 6070,
      "ĠØªÙĥÙĨ": 6071,
      "comp": 6072,
      "with": 6073,
      "Ġoriginal": 6074,
      "miss": 6075,
      "Ġrecogn": 6076,
      "ĠÙħÙĪØ§Ø¬ÙĩØ©": 6077,
      "atively": 6078,
      "PR": 6079,
      "ÙĦÙģØ²ÙĬ": 6080,
      "ÙĩØ§Ø±": 6081,
      "theta": 6082,
      "ĠĠĠĠĠĠĠĠĠĠĠĠ": 6083,
      "ĠÙĦØ¹Ø¯": 6084,
      "ĠÙĥØ¨ÙĬØ±Ø§": 6085,
      "ĠØ§ÙĦÙĤÙĬØ§Ùħ": 6086,
      "ĠØ§ÙĦØ£Ø³Ø§Ø³ÙĬØ©": 6087,
      "ĠØ§ÙĦÙħÙĪØ³Ùħ": 6088,
      "OC": 6089,
      "atus": 6090,
      "Ġtherefore": 6091,
      "Ġpatient": 6092,
      "ĠØ§ÙĬØ¶Ø§": 6093,
      "ĠØ¨ØŃÙĬØ«": 6094,
      "Ġpattern": 6095,
      "...\"": 6096,
      "Ġindu": 6097,
      "Ġles": 6098,
      "Ġcard": 6099,
      "Ġshall": 6100,
      "ĠØªØ¹ØªØ¨Ø±": 6101,
      "Ġson": 6102,
      "ĠØ§ÙĦÙħØªØ¹": 6103,
      "ÙĦØ§ÙĦØ©": 6104,
      "file": 6105,
      "ĠÙħÙĤØ±": 6106,
      "ĠØ§ÙĦØ³Ø§Ø¯": 6107,
      "Ñĥ": 6108,
      "Ġimprove": 6109,
      "ĠÙģØ±Ø¶": 6110,
      "ĠØ³Ø¨Ø¨": 6111,
      "ØµØ¯Ø§Ø±": 6112,
      "Ġcompl": 6113,
      "ĠÙĦØ¥ÙĨ": 6114,
      "Ġquick": 6115,
      "ÙģØ§Ø¯Ø©": 6116,
      "based": 6117,
      "Ø§ÙĨØª": 6118,
      "ĠØ§ÙĦØ·Ø±ÙĤ": 6119,
      "Ġ2006": 6120,
      "yp": 6121,
      "ØŃØ¯ÙĬØ¯": 6122,
      "ĠØ§ÙĦØ¹Ø²ÙĬØ²": 6123,
      "Wh": 6124,
      "vant": 6125,
      "ĠÙĪØ±Ø§Ø¡": 6126,
      "ĠØ§ÙĦÙĨØ§Ø¯ÙĬ": 6127,
      "![": 6128,
      "leq": 6129,
      "ĠÙĬØ¤Ø¯ÙĬ": 6130,
      "ÙĪØ®": 6131,
      "ĠÙĤØ·": 6132,
      "ĠÙħÙĤØ¯": 6133,
      "ĠCont": 6134,
      "ĠÙĬØŃØªØ§Ø¬": 6135,
      "CL": 6136,
      "Ġassum": 6137,
      "ÙĨØ§Øª": 6138,
      "ĠÂ§": 6139,
      "omega": 6140,
      "Ġdisplay": 6141,
      "ĠHar": 6142,
      "Ġinvolved": 6143,
      "Ġservices": 6144,
      "Ø¸Ø§Ø±": 6145,
      "eks": 6146,
      "></": 6147,
      "do": 6148,
      "tau": 6149,
      "ĠØ§ÙĦØ®Ø¯ÙħØ©": 6150,
      "Ø®Ø·Ø·": 6151,
      "ĠÙĦÙĦØ®": 6152,
      "Ġground": 6153,
      "sk": 6154,
      "Ġgirl": 6155,
      "Ġreve": 6156,
      "iddle": 6157,
      "ĠÙģØ±ØµØ©": 6158,
      "Ø²ÙĪØ¬": 6159,
      "Ġdistrict": 6160,
      "ĠØ§ÙĦØ¬ÙħØ¹ÙĬØ©": 6161,
      "Ġbehind": 6162,
      "Ġfund": 6163,
      "ÙĨÙĪÙĨ": 6164,
      "Ġbegan": 6165,
      "ĠÙĦÙĥÙĬ": 6166,
      "ederal": 6167,
      "Ø§ØŃØ§Øª": 6168,
      "reet": 6169,
      "hem": 6170,
      "ĠØ£ÙĩØ¯Ø§Ùģ": 6171,
      "rote": 6172,
      "illi": 6173,
      "ØŃÙĬÙĨ": 6174,
      "Ġadminist": 6175,
      "}}\\": 6176,
      "Ġsomeone": 6177,
      "Ġproduction": 6178,
      "Ġvo": 6179,
      "ĠØ§ÙĦØ¬Ø¯": 6180,
      "ĠÙĨÙħ": 6181,
      "ÙĬÙĦØ§Øª": 6182,
      "ÙĥÙĦÙģØ©": 6183,
      "ĠØ£Ø¨Ø¯": 6184,
      "ÙĥÙĬØ±": 6185,
      "Ø«ÙĦØ§Ø«": 6186,
      "Ø§ØŃØ¸": 6187,
      "ĠØ§ÙĦØ¥ÙĤÙĦÙĬÙħ": 6188,
      "ĠØªÙħÙĥÙĨ": 6189,
      "ĠØ§ÙĦØ£Ø®Ø¨Ø§Ø±": 6190,
      "ying": 6191,
      "Ġtaking": 6192,
      "Ø§Ø±ÙĬØ±": 6193,
      "ĠGo": 6194,
      "Ġseems": 6195,
      "Ø§Ø¯Ùħ": 6196,
      "ĠØ£Ø¨Ø±ÙĬÙĦ": 6197,
      "ites": 6198,
      "Ø²Ø±": 6199,
      "Ø§ÙĨÙĬÙĬÙĨ": 6200,
      "ĠØ¨ÙħØ¹": 6201,
      "ĠÙĦØ¯ÙĬÙĨØ§": 6202,
      "ste": 6203,
      "OL": 6204,
      "Ġeduc": 6205,
      "ram": 6206,
      "Ø¨ÙĬØ¶": 6207,
      "Ġprobably": 6208,
      "used": 6209,
      "Ġexec": 6210,
      "ÙģÙĬØ¯": 6211,
      "aled": 6212,
      "////": 6213,
      "ĠØ§ÙĦÙĥÙħ": 6214,
      "Ø®Ùħ": 6215,
      "Ġanti": 6216,
      "xim": 6217,
      "ĠØ¨ÙĩÙħ": 6218,
      "ĠÙĪØ¸Ø§Ø¦Ùģ": 6219,
      "ĠÙĦØ§Ùģ": 6220,
      "Ø¨ÙĬØª": 6221,
      "ĠÙĦÙĥØ±Ø©": 6222,
      "ØªÙĩÙĬ": 6223,
      "ĠØ±Ø¬Ø§ÙĦ": 6224,
      "Ġinstead": 6225,
      "ĠØ´Ø±ÙĤ": 6226,
      "My": 6227,
      "ĠØ§ÙĦØ¹ÙĦØ§Ø¬": 6228,
      "ĠØ§ÙĦØ¨ÙĬØ§ÙĨØ§Øª": 6229,
      "ĠAb": 6230,
      "ĠØ§ÙĦÙĥØ¨Ø±Ùī": 6231,
      "ĠØ§ÙĦØ·Ø¨ÙĬØ©": 6232,
      "Ø§Ø¨ÙĨ": 6233,
      "ĠØ§ÙĦØ§ÙĪÙĦ": 6234,
      "ĠØ§ÙĦÙħØ¬Ø§ÙĦ": 6235,
      "Ġmusic": 6236,
      "ĠØ§ÙĦØ£Ø´Ø®Ø§Øµ": 6237,
      "ĠÙĪÙĥØ§ÙĦØ©": 6238,
      "ĠÙĩØ§": 6239,
      "Ġhttp": 6240,
      "Ġformer": 6241,
      "Ġpage": 6242,
      "ĠÙĬØ²ÙĬØ¯": 6243,
      "Ø´Ø§Ø·": 6244,
      "Ġmodels": 6245,
      "ĠØ§ÙĦÙħÙĨØªØ®Ø¨": 6246,
      "idge": 6247,
      "PE": 6248,
      "ÙĨØ·ÙĨ": 6249,
      "Ġprevent": 6250,
      "Ġess": 6251,
      "ĠÙĦÙĤØ§Ø¡": 6252,
      "ĠØ§ÙĦØ®ÙĦ": 6253,
      "ĠCity": 6254,
      "Ø®Ø±Ø§": 6255,
      "ÙĪØ²Ø§Ø±Ø©": 6256,
      "Ġcreat": 6257,
      "ĠØ±ØŃÙħ": 6258,
      "ĠÙĬÙĪØ³Ùģ": 6259,
      "Ġstep": 6260,
      "ĠÙĪÙĤØ§ÙĦØª": 6261,
      "come": 6262,
      "ĠÙħÙĩÙħØ©": 6263,
      "uments": 6264,
      "ĠØ§ÙĦØ±ÙĤ": 6265,
      "ĠÙĦÙĦÙħØ±": 6266,
      "Ø³Ùĥ": 6267,
      "ĠØªØ¹ÙĦÙĬÙĤ": 6268,
      "comes": 6269,
      "Ġspecies": 6270,
      "ĠØ§ÙĦØ£ÙħÙĨÙĬØ©": 6271,
      "ĠØ§ÙĦØ·ÙĦØ§Ø¨": 6272,
      "unch": 6273,
      "ÙĪØ§Øµ": 6274,
      "Ġ\\\\": 6275,
      "Ø§ÙĦØ¬Ø©": 6276,
      "ĠDo": 6277,
      "ÙĪØ£Ø¶Ø§Ùģ": 6278,
      "ÙĪÙħÙĨ": 6279,
      "Ø§Ø·ÙĦ": 6280,
      "Ġ32": 6281,
      "Ġdie": 6282,
      "ynam": 6283,
      "partial": 6284,
      "ĠØ§ÙĦØ¹Ø³ÙĥØ±ÙĬ": 6285,
      "ague": 6286,
      "Data": 6287,
      "Ø±ÙĬØ©": 6288,
      "Ġword": 6289,
      "Ø§ØŃÙĬ": 6290,
      "Ġneeds": 6291,
      "ä¸": 6292,
      "ĠØ§ÙĦÙĨÙĪØ§Ø¨": 6293,
      "ĠØ¥ÙĨØ´Ø§Ø¡": 6294,
      "light": 6295,
      "ĠÙĬØ¨Ø¯ÙĪ": 6296,
      "Ġsem": 6297,
      "Ø¬Ø§Ø¨Ø©": 6298,
      "stant": 6299,
      "ĠÙĦØº": 6300,
      "ĠØ§ÙĦÙħØ¤Ø³Ø³Ø§Øª": 6301,
      "UR": 6302,
      "times": 6303,
      "Ġmotion": 6304,
      "ĠÙĦØ¹Ø¨": 6305,
      "ĠØ§ÙĦØ´Ø±ÙĤÙĬØ©": 6306,
      "ÙĨØ§Ùģ": 6307,
      "Ġcontract": 6308,
      "ĠÙģØ¶ÙĦØ§": 6309,
      "define": 6310,
      "ĠØ®ÙĦÙĬ": 6311,
      "Ø§Ø¯ÙĬÙħ": 6312,
      "ĠØ£ÙĪÙĦØ§": 6313,
      "pri": 6314,
      "ĠØªØ´ÙĥÙĬÙĦ": 6315,
      "ĠPres": 6316,
      "ĠØ§ÙĦØ£ÙĬØ§Ùħ": 6317,
      "Ġlooked": 6318,
      "ĠĠĠĠĠĠĠĠĠĠĠĠĠ": 6319,
      "97": 6320,
      "des": 6321,
      "ĠÙģÙĥ": 6322,
      "ĠØ§ÙĦØ·Ø¹Ø§Ùħ": 6323,
      "Ġsearch": 6324,
      "ØªØ¨Ø¹": 6325,
      "ĠÙħÙĬØ¯": 6326,
      "ĠØªØ¹ÙĦÙĬÙħ": 6327,
      "Ġindust": 6328,
      "ĠØ§ÙĦÙģÙĨÙĬ": 6329,
      "code": 6330,
      "astic": 6331,
      "Ġknew": 6332,
      "ØªØ§Ø²": 6333,
      "Ġfather": 6334,
      "ĠØ§ÙĦÙħØŃÙĦÙĬ": 6335,
      "ĠØ¥ÙĨÙĩØ§": 6336,
      "ĠØ§ÙĦØµÙģØŃØ©": 6337,
      "ado": 6338,
      "ĠØ¨Ø³Ø±": 6339,
      "View": 6340,
      "ĠØ§ÙĥØ«Ø±": 6341,
      "ĠWar": 6342,
      "ades": 6343,
      "ĠÙĩØ¯Ùģ": 6344,
      "ĠØ§ÙĦØªØ§Ø¨Ø¹Ø©": 6345,
      "Ġfalse": 6346,
      "ï¼": 6347,
      "ĠÙĬØ³ØªØ·ÙĬØ¹": 6348,
      "ĠÙģØ¥Ø°Ø§": 6349,
      "84": 6350,
      "PS": 6351,
      "ĠÙĪØ§ÙĦØ³ÙĬ": 6352,
      "../": 6353,
      "ĠØ§ÙĦÙĪØ³Ø·": 6354,
      "Ġcomes": 6355,
      "ĠÙħØŃØ§ÙĪÙĦØ©": 6356,
      "ĠØªÙĤÙĪÙĦ": 6357,
      "Ġ2000": 6358,
      "ĠÙĪØ±Ø¯": 6359,
      "])": 6360,
      "Ġproblems": 6361,
      "BC": 6362,
      "aving": 6363,
      "dom": 6364,
      "ĠÙĥÙĦØ§Ùħ": 6365,
      "Ġtemperature": 6366,
      "ĠØ´Ø¹Ø±": 6367,
      "ĠØµÙĨØ¹": 6368,
      "ĠÙĤØ·Ø¹": 6369,
      "Ġfire": 6370,
      "ĠØ¨ÙĪÙĦ": 6371,
      "ĠÙĬØ¨": 6372,
      "ÙĪØ§Ø¦Ø¯": 6373,
      "Ġpret": 6374,
      "ĠØ³Ø¨ØŃ": 6375,
      "ĠÙĨØ¨": 6376,
      "ĠÙĪØ§ÙĦÙĦ": 6377,
      "Ġexact": 6378,
      "ĠØªØ¹Ø²ÙĬØ²": 6379,
      "inally": 6380,
      "ĠØ§ÙĦÙĨÙĤØ¯": 6381,
      "ĠØ§ÙĦÙħØ¯ÙĬØ±": 6382,
      "Ø¬ÙħØ©": 6383,
      "Ġquite": 6384,
      "ĠÙħØ¤ÙĥØ¯Ø§": 6385,
      "ØŃÙĩ": 6386,
      "ØªØ±ÙĥØ©": 6387,
      "ĠWorld": 6388,
      "ĠØ§ÙĦØŃØ§ÙĦØ©": 6389,
      "Ġdim": 6390,
      "Ø«ÙĦØ©": 6391,
      "Ġcapt": 6392,
      "ĠØ§ÙĦØµÙĪØ±": 6393,
      "ĠØ§ÙĦÙħÙĨØ²ÙĦ": 6394,
      "Ø¬ÙĦØ©": 6395,
      "ĠÙĦÙħØ³": 6396,
      "Ġdu": 6397,
      "Ġfriend": 6398,
      "Ġexpected": 6399,
      "Ġstay": 6400,
      "Ø¬Ø§ÙĪØ²": 6401,
      "Ø¨ÙĨÙī": 6402,
      "ĠØ¹ÙĦØ§ÙĤØ©": 6403,
      "Ġinitial": 6404,
      "hers": 6405,
      "ĠØ¨Ø¯Ø¡": 6406,
      "ĠÙĪØ¬Ø¯": 6407,
      "ecause": 6408,
      "infty": 6409,
      "Ø²ÙĤ": 6410,
      "ÙĬØ¨Ø©": 6411,
      "ĠØªÙĪÙĤ": 6412,
      "ÙģÙĬÙĩ": 6413,
      "ĠØ¨Ø§ÙĦÙĦ": 6414,
      "ĠEl": 6415,
      "Table": 6416,
      "Ã¼": 6417,
      "ĠØ§ÙĦØ§Ø³ØªØ«ÙħØ§Ø±": 6418,
      "ĠØ§ÙĦÙħØ¤ÙħÙĨ": 6419,
      "ĠØ§ÙĦØ¨ÙĨÙĥ": 6420,
      "ĠÙħØ§Øª": 6421,
      "Ø§Ø¯Ø¦": 6422,
      "Ġquality": 6423,
      "ĠØ§ÙĦØ°ÙĩØ¨": 6424,
      "ĠØ¹ÙĦØ§Ø¬": 6425,
      "olve": 6426,
      "}$,": 6427,
      "ĠBo": 6428,
      "ĠØŃØµ": 6429,
      "ĠØŃØ¯ÙĪØ¯": 6430,
      "Im": 6431,
      "Ġdistribution": 6432,
      "ĠØ§ÙĦÙħÙĥØ§ÙĨ": 6433,
      "Ġelement": 6434,
      "size": 6435,
      "Ġeverything": 6436,
      "ĠÙħØ¹ÙĩØ§": 6437,
      "ÙĨØ¯Ø³": 6438,
      "eration": 6439,
      "Ø¹ÙĦÙħ": 6440,
      "ĠBrit": 6441,
      "MS": 6442,
      "utions": 6443,
      "ĠÙĬØ¬ÙĪØ²": 6444,
      "Ġ$$": 6445,
      "Ġinside": 6446,
      "ĠØªØ¶": 6447,
      "Ø¸ÙħØ§Øª": 6448,
      "UT": 6449,
      "Ġcolor": 6450,
      "ĠØ§ÙĦÙĤØ¶Ø§Ø¡": 6451,
      "bor": 6452,
      "Ġcompar": 6453,
      "Ġsense": 6454,
      "ĠØ¨Ø·ÙĪÙĦØ©": 6455,
      "ĠØ§ÙĦÙĪØ¸Ø§Ø¦Ùģ": 6456,
      "olic": 6457,
      "quad": 6458,
      "Ġespecially": 6459,
      "ØŃÙĬØ§Ø©": 6460,
      "Ø±ÙĬØ¬": 6461,
      "Ġload": 6462,
      "ĠÂ±": 6463,
      "ÙĨØ§Ø¦ÙĬ": 6464,
      "umb": 6465,
      "Ġbring": 6466,
      "ĠØ³Ø¹Ø¯": 6467,
      "Ø§Ø¶ÙĬØ¹": 6468,
      "Ġ80": 6469,
      "Ġpredict": 6470,
      "uary": 6471,
      "ĠØ¥Ø¹": 6472,
      "ging": 6473,
      "ĠØ§ÙĦØªØŃÙĤÙĬÙĤ": 6474,
      "Ġrecent": 6475,
      "ØŃØ§ÙģØ¸Ø©": 6476,
      "ĠØ§ÙĦØ§Ø³ÙĦØ§Ùħ": 6477,
      "rav": 6478,
      "ĠÙĦÙĦØºØ§ÙĬØ©": 6479,
      "83": 6480,
      "ĠÙħÙĪØ§Ø·": 6481,
      "Ġnecessary": 6482,
      "ĠØ§ÙĦØªÙĨØ¸ÙĬÙħ": 6483,
      "Ġoutside": 6484,
      "ĠThus": 6485,
      "ÙĪØ§Ùĥ": 6486,
      "ĠØ¨Ø«": 6487,
      "ĊĠĠĠĠĠĠĠĠĠĠĠĠĠĠĠĠĠĠĠĠĠĠĠĠĠĠĠĠĠĠĠĠ": 6488,
      "icense": 6489,
      "ĠØ¨Ø§ÙĦØ¬": 6490,
      "Ġevents": 6491,
      "ĠÙĪØ§ÙĦÙħØ³": 6492,
      "Ġdefendant": 6493,
      "Ġestim": 6494,
      "Ø²ÙĨ": 6495,
      "Ø§ÙĪØ±": 6496,
      "ĠØ§ÙĦØ¨Ø§ØŃØ«": 6497,
      "ĠÙħØ¬ÙħÙĪØ¹": 6498,
      "Ø¹Ø¯Ø¯Ø©": 6499,
      "ĠAug": 6500,
      "Ġfeatures": 6501,
      "ĠØ§ÙĦØµÙĪØ±Ø©": 6502,
      "ĠDep": 6503,
      "\");": 6504,
      "ĠØŃÙħØ§ÙĬØ©": 6505,
      "lig": 6506,
      "ØªÙĬØ¨": 6507,
      "ĠØ´Ø±Ø§Ø¡": 6508,
      "ĠØ§ÙĦÙĨÙĬ": 6509,
      "ÙĤÙĦØª": 6510,
      "ĠÙĪÙĬØŃ": 6511,
      "ĠÙĪØ§Ø¬": 6512,
      "ĠÙħÙģØª": 6513,
      "Ġgene": 6514,
      "ĠØ§ÙĦÙħØ¬ÙħÙĪØ¹Ø©": 6515,
      "ØªØ±Ø¶": 6516,
      "ĠÙĪÙĦØ§ÙĬØ©": 6517,
      "ĠØ³Ùģ": 6518,
      "position": 6519,
      "Ġmember": 6520,
      "ĠØ¯Ø§": 6521,
      "âĢĲ": 6522,
      "Ø¹Ø§Ø¡": 6523,
      "ÙĤØ·Ø¹": 6524,
      "Ġdoor": 6525,
      "ĠØŃÙħÙĦØ©": 6526,
      "ÙģÙī": 6527,
      "ulations": 6528,
      "ĠØªØ³ØªØ®Ø¯Ùħ": 6529,
      "ĠÙĪØ¥ÙĨÙħØ§": 6530,
      "Ġlonger": 6531,
      "Ġinput": 6532,
      "ĠØ§ÙĦØ¹ÙħÙĦØ§Øª": 6533,
      "Ø§Ø¦ÙĩÙħ": 6534,
      "ĠØ£ØµØ¨ØŃØª": 6535,
      "Ġpie": 6536,
      "ĠØ§ÙĦÙģØ±ÙĨØ³ÙĬ": 6537,
      "ĠÙĦÙħØ¹": 6538,
      "oke": 6539,
      "Ġ70": 6540,
      "ĠØŃØ§ÙĦØ§Øª": 6541,
      "Ġ01": 6542,
      "Ø¨ÙĩØ©": 6543,
      "ccording": 6544,
      "ĠØ§ÙĦÙħØµØ¯Ø±": 6545,
      "ĠPart": 6546,
      "Ø°ÙĦ": 6547,
      "ÙĪØ±ÙĪ": 6548,
      "\\\\": 6549,
      "ĠCD": 6550,
      "Ø¬Ø§Ø¨": 6551,
      "ĠØ§ÙĦØ§Øµ": 6552,
      "Ġfem": 6553,
      "ÙĤØ§Ø¦ÙĤ": 6554,
      "ÙħÙĩ": 6555,
      "ĠÙĬØŃÙħÙĦ": 6556,
      "document": 6557,
      "ĠØ§ÙĦÙĬÙĩÙĪØ¯": 6558,
      "ĠØ§ÙĦØ¶Ø±": 6559,
      "Ġwoman": 6560,
      "ÙĥÙĪÙħØ©": 6561,
      "Ø§ÙĤÙĬØ©": 6562,
      "ĠØ§ÙĦÙĤØ¶ÙĬØ©": 6563,
      "ĠØ¯ÙĪØ±ÙĬ": 6564,
      "Ġprint": 6565,
      "oon": 6566,
      "ĠÙĬÙĪÙħÙĬØ§": 6567,
      "Ġbir": 6568,
      "Ġdocument": 6569,
      "ĠØ§ÙĦÙĩØ¯Ùģ": 6570,
      "Ġpresence": 6571,
      "sl": 6572,
      "ĠØ§ÙĦÙģÙĦ": 6573,
      "ĠØ§ÙĦÙĥØ±Ø©": 6574,
      "ĠØ§ÙĦØ«Ø§ÙĦØ«Ø©": 6575,
      "Ġimplement": 6576,
      "Ġpersonal": 6577,
      "Ø§Ø¯Ùī": 6578,
      "ĠÙħØ§ÙĨ": 6579,
      "ĠØ§ÙĦÙħØ¶": 6580,
      "ĠØ§ÙĦØ¥Ø¬Ø±Ø§Ø¡Ø§Øª": 6581,
      "ĠÙĥÙĦÙĬØ©": 6582,
      "ĠØªØŃÙħÙĬÙĦ": 6583,
      "ags": 6584,
      "ĠÙħÙħÙĨ": 6585,
      "Ø¸ÙĦ": 6586,
      "ĠSouth": 6587,
      "Ġaverage": 6588,
      "Ġ37": 6589,
      "Ø¨ÙĦÙĪÙħ": 6590,
      "Ġsett": 6591,
      "Ġissues": 6592,
      "ula": 6593,
      "ĠEd": 6594,
      "ÙĪØ§Ø¬Ø¯": 6595,
      "}$.": 6596,
      "ribute": 6597,
      "ĠØ§ÙĦØ¹ÙĦÙħØ§Ø¡": 6598,
      "ĠØ¨Ø§ÙĦØ·": 6599,
      "ĠØ¬ÙħÙĬØ¹Ø§": 6600,
      "ĠÙģÙĬÙĦÙħ": 6601,
      "ĠØ§ÙĦØ¥Ø³": 6602,
      "ĠØ¥Ø®": 6603,
      "Ø§ÙħØ§Øª": 6604,
      "ĠÙĨÙĬÙĪØ²": 6605,
      "ĠØ±Ùĥ": 6606,
      "Ġ90": 6607,
      "ĠØ£Ø¹ÙĦÙĨØª": 6608,
      "With": 6609,
      "osition": 6610,
      "ĠØ®ÙħØ³": 6611,
      "itary": 6612,
      "ĠØ§ÙĦØ£ØµÙĦ": 6613,
      "Ġwait": 6614,
      "ÙĪØªÙĬ": 6615,
      "ÙĤÙĬÙĤÙĬØ©": 6616,
      "ÙĤØ·Ø§Ø¹": 6617,
      "Ġmedia": 6618,
      "Ġproced": 6619,
      "ÙħØ§ÙĩÙĬØ±": 6620,
      "istics": 6621,
      "Ø¨ÙĬÙĪØªØ±": 6622,
      "Ø§ÙĤØ´": 6623,
      "Ġexperiment": 6624,
      "Ġconv": 6625,
      "ĠØ§ÙĦÙĤÙĪÙĦ": 6626,
      "ĠØ¨Ø¯ÙĦØ§": 6627,
      "Ġsimply": 6628,
      "ĠØ§ÙĦØ¹ÙĦÙħÙĬØ©": 6629,
      "ĠØ§ÙĦØ§ØªØµØ§ÙĦ": 6630,
      "ĠØ§ÙĦØŃÙĤÙĬÙĤØ©": 6631,
      "Ġwall": 6632,
      "field": 6633,
      "ĠÙĪÙĩÙĨØ§Ùĥ": 6634,
      "ĠØ£Ø¨ÙĨØ§Ø¡": 6635,
      "ĠØ§ÙĦØ¬ÙĩØ§Øª": 6636,
      "ĠØ¢ÙĦØ§Ùģ": 6637,
      "ĠÙĦÙħØ§Ø°Ø§": 6638,
      "ĠØµÙĦØ§ØŃ": 6639,
      "lish": 6640,
      "ĠÙħØ´ÙĥÙĦØ©": 6641,
      "Ġnucle": 6642,
      "ĠOct": 6643,
      "ĠAust": 6644,
      "ĠDef": 6645,
      "98": 6646,
      "ÙĤÙģ": 6647,
      "At": 6648,
      "Ġge": 6649,
      "ĠNe": 6650,
      "Ġsurv": 6651,
      "Ġlanguage": 6652,
      "ĠÙĦØ£ÙĨÙĩØ§": 6653,
      "Ġprovides": 6654,
      "ĠÙħÙĪØ¸": 6655,
      "ĠØªØŃØ±": 6656,
      "ĠÃ©": 6657,
      "itude": 6658,
      "https": 6659,
      "ĠØ§ÙĦØ´Ø¨": 6660,
      "ĠØ§ÙĦÙĥÙĨ": 6661,
      "Ġtrack": 6662,
      "Ġstudents": 6663,
      "era": 6664,
      "state": 6665,
      "Delta": 6666,
      "Ġcomplete": 6667,
      "Ġclinical": 6668,
      "aves": 6669,
      "Ø§ÙģØ§Øª": 6670,
      "arily": 6671,
      "ĠØ¨Ø±ÙĪ": 6672,
      "ÙĥÙĨØ¯Ø±": 6673,
      "ĠØ³ÙĥØ§ÙĨ": 6674,
      "Ġvideo": 6675,
      "box": 6676,
      "Ġtiss": 6677,
      "ĠÙĪØ±Ø¨": 6678,
      "Ø³ÙĬÙħ": 6679,
      "ØªØ¨Ø©": 6680,
      "ĠØ§ÙĦÙħÙĦÙģ": 6681,
      "ĠÙĪØŃØ¯Ø©": 6682,
      "Ġeffort": 6683,
      "elling": 6684,
      "ĠØ§ÙĦØ±ØŃÙħÙĨ": 6685,
      "94": 6686,
      "ĠDist": 6687,
      "ĠØŃØ¯Ø«ÙĨØ§": 6688,
      "rim": 6689,
      "ĠØ§ÙĦØ³ÙĬÙĨ": 6690,
      "Pl": 6691,
      "Ġsequence": 6692,
      "ĠØ¨Ø§ÙĦØ®": 6693,
      "Ø±ÙĬØª": 6694,
      "ĠØ§ÙĦØªØ¹Ø¯": 6695,
      "Ġstra": 6696,
      "ĠØ§ÙĦÙĦØ§Ø²ÙħØ©": 6697,
      "ÙĦØ§ÙĬÙĬÙĨ": 6698,
      "ĠØŃØ³ÙĬÙĨ": 6699,
      "Ġphase": 6700,
      "ØŃØ³Ø¨": 6701,
      "ĠComp": 6702,
      "Ïĥ": 6703,
      "Ø®Ø±Ø§Ø¬": 6704,
      "Ġdetermined": 6705,
      "Ġ45": 6706,
      "Ġprinc": 6707,
      "Ø¯Ø§Ø¡": 6708,
      "ĠØ§ÙĦØ£ÙĤÙĦ": 6709,
      "ĠÙĦÙĬØ¨ÙĬØ§": 6710,
      "cription": 6711,
      "ĠÙĬÙĩ": 6712,
      "Ġlate": 6713,
      "ospital": 6714,
      "ĠPer": 6715,
      "Ġremain": 6716,
      "olds": 6717,
      "ymb": 6718,
      "++": 6719,
      "ĠIntern": 6720,
      "Â»": 6721,
      "ĠØ§ÙĦØ£Ø²": 6722,
      "Ġcreated": 6723,
      "Ø±ÙĪØ©": 6724,
      "ÙģØ§Ùģ": 6725,
      "hern": 6726,
      "Ġbuilding": 6727,
      "ĠÙĬØ¹ÙĦÙħ": 6728,
      "raction": 6729,
      "ĠØ¨ÙĬÙĨÙĩÙħ": 6730,
      "ĠÙħØ¨Ø§Ø´Ø±": 6731,
      "ĠØ¹Ø´Ø±Ø©": 6732,
      "Ġwritten": 6733,
      "apan": 6734,
      "clusion": 6735,
      "ĠDes": 6736,
      "Ġten": 6737,
      "ĠØ§ÙĦØ¹Ø¶": 6738,
      "Ø²Ø¹": 6739,
      "Ø§Ø¬Ø¹Ø©": 6740,
      "ĠØ§ÙĦØ²ÙħÙĨ": 6741,
      "ĠØ§ÙĨÙĩØ§": 6742,
      "ĠØ§ÙĦÙĥÙĦ": 6743,
      "ĠÙĪÙĬØ³Øª": 6744,
      "ĠØ³ÙĪ": 6745,
      "ĠØ§ÙĦØ£Ø²ÙħØ©": 6746,
      "Ġpoly": 6747,
      "ĠÙģÙĬØ¯ÙĬ": 6748,
      "dis": 6749,
      "ĠØ§ÙĦÙħÙĤØ¨ÙĦØ©": 6750,
      "Ġpolice": 6751,
      "Ġpolitical": 6752,
      "ĠPe": 6753,
      "dered": 6754,
      "ronic": 6755,
      "Ø§ÙĦÙĨ": 6756,
      "airs": 6757,
      "rapy": 6758,
      "Ġforce": 6759,
      "Ø·ÙĤ": 6760,
      "ĠØ¹Ø§ÙħØ©": 6761,
      "')": 6762,
      "Ġofficial": 6763,
      "ĠÙģÙħØ§": 6764,
      "ett": 6765,
      "su": 6766,
      "Ġlack": 6767,
      "ham": 6768,
      "ĠÙħØ´Ø§Ø±ÙĥØ©": 6769,
      "rc": 6770,
      "ĠÙħÙħÙĥÙĨ": 6771,
      "._": 6772,
      "uous": 6773,
      "RNA": 6774,
      "ĠÙĦÙĦØ¹ÙħÙĦ": 6775,
      "\";": 6776,
      "down": 6777,
      "Ġstri": 6778,
      "ĠØ®ØµÙĪØµØ§": 6779,
      "Ġox": 6780,
      "Ø°Ø§Ø±": 6781,
      "ĠPa": 6782,
      "lege": 6783,
      "ĠÙĪØªØ±": 6784,
      "ĠĠĠĠĠĠĠĠĠĠĠĠĠĠ": 6785,
      "ĠØ¸ÙĩÙĪØ±": 6786,
      "By": 6787,
      "ĠÙĤØ±Ø§Ø¡Ø©": 6788,
      "ÙĪÙĨØ§Øª": 6789,
      "ĠII": 6790,
      "ĠÙĬÙĨØ¨ØºÙĬ": 6791,
      "Ø§ÙħØ±": 6792,
      "ĠReg": 6793,
      "Ġcommunic": 6794,
      "const": 6795,
      "\\*": 6796,
      "ĠØ¨Ø§ÙĦØ±": 6797,
      "ĠØ§ÙĦÙħØ³ØªØ®Ø¯Ùħ": 6798,
      "Ġdiagn": 6799,
      "ĠØªØµÙħÙĬÙħ": 6800,
      "ĠØ®Ø·Ø©": 6801,
      "Ġhor": 6802,
      "Ġhot": 6803,
      "ÙĬØŃ": 6804,
      "ĠÙĪØªÙĤ": 6805,
      "Ġir": 6806,
      "Ġcorrel": 6807,
      "ĠÙĨØ¹Ùħ": 6808,
      "ishing": 6809,
      "ĠØ§ÙĦØ¨Ø´Ø±ÙĬØ©": 6810,
      "ĠØ¨Ø§ÙĦÙħÙĨ": 6811,
      "Ġgave": 6812,
      "ĠØ§ÙĦØ£ÙħÙĬØ±ÙĥÙĬØ©": 6813,
      "Ġsatisf": 6814,
      "ĠNorth": 6815,
      "82": 6816,
      "Ġsample": 6817,
      "ĠØ§ÙĦÙħØ³ÙĦØŃØ©": 6818,
      "Ġstrateg": 6819,
      "ĠØ¨Ø·Ø±ÙĬÙĤØ©": 6820,
      "word": 6821,
      "ĠØ§ÙĦÙĨØª": 6822,
      "Ġ2005": 6823,
      "ĠAf": 6824,
      "ĠÙĨØ³Ø¨": 6825,
      "Ġmole": 6826,
      "mary": 6827,
      "Ġpressure": 6828,
      "lin": 6829,
      "refore": 6830,
      "Ġimpact": 6831,
      "ENT": 6832,
      "ĠÙĪÙħØ¯": 6833,
      "bject": 6834,
      "IF": 6835,
      "ĠØ§ÙĦØ¹Ø±Ø¶": 6836,
      "bre": 6837,
      "Ø±Ø³Ø§ÙĦ": 6838,
      "ĠÙĬØªØŃ": 6839,
      "ĠØ§ÙĦØ¹ÙĬÙĨ": 6840,
      "ĠØ¬ÙĩÙĪØ¯": 6841,
      "Ġfollowed": 6842,
      "Ġdate": 6843,
      "ĠØ§ÙĦÙģÙĨÙĬØ©": 6844,
      "Ġfunctions": 6845,
      "Ġoutput": 6846,
      "ĠØªÙĤØ±ÙĬØ¨Ø§": 6847,
      "ĠØ§ÙĦÙħØŃØª": 6848,
      "pre": 6849,
      "Ø®Ø¯ÙħØ§Øª": 6850,
      "Ġturned": 6851,
      "Ġslow": 6852,
      "Ġprec": 6853,
      "pril": 6854,
      "ĠØ¬ÙĬØ¯Ø§": 6855,
      "ĠÙħÙĨØ¹": 6856,
      "Ġrights": 6857,
      "ĠØ¹ÙĤØ¨": 6858,
      "ĠØ§ÙĦÙħØ¯Ø±Ø³Ø©": 6859,
      "čĊĠĠĠ": 6860,
      "ĠMarch": 6861,
      "ÙĤØ¯ÙĬØ±": 6862,
      "Ġacid": 6863,
      "ÙĪØ¹ÙĬØ©": 6864,
      "Ġrev": 6865,
      "ĠØ§ÙĦÙĪØ³": 6866,
      "ĠÙĬØ¹ÙĬØ´": 6867,
      "Ġcry": 6868,
      "ĠÙĨØŃ": 6869,
      "ÙģÙĪ": 6870,
      "ĠÙħØ³ÙĦÙħ": 6871,
      "ĠØ£Øª": 6872,
      "ĠÙħØ§ÙĦ": 6873,
      "76": 6874,
      "Ġcopy": 6875,
      "ĠÙĥÙĪÙħ": 6876,
      "itation": 6877,
      "ĠØ§ÙĦØ³ÙĨÙĪØ§Øª": 6878,
      "ĠØ§ÙĦØ¨Ø±Ø§ÙħØ¬": 6879,
      "ĠÙĪÙĨØŃÙĨ": 6880,
      "list": 6881,
      "Ġcorrect": 6882,
      "Ġdepend": 6883,
      "ĠØ§ÙĦØ¨Ø±ÙĦÙħØ§ÙĨ": 6884,
      "ĠØ§ÙĦÙĬØ§Ø¨": 6885,
      "Ġwrong": 6886,
      "width": 6887,
      "Ġconstit": 6888,
      "Ġsoon": 6889,
      "Ø·ÙģÙī": 6890,
      "ÙĪÙĬØ¶": 6891,
      "ÙĪØ±Øª": 6892,
      "Ïģ": 6893,
      "ĠØ£Ø³Ø¨ÙĪØ¹": 6894,
      "Ġmemory": 6895,
      "ĠØ§ÙĦØ£ÙħØ©": 6896,
      "ĠØ§ÙĦÙħØŃØ§ÙģØ¸Ø©": 6897,
      "ĠØ³ÙĦØ³ÙĦØ©": 6898,
      "ĠØ²ÙħÙĨ": 6899,
      "ĠOF": 6900,
      "ĠÙĦØ¯ÙĬÙĩ": 6901,
      "OD": 6902,
      "ØŃÙĬØ§Ø¡": 6903,
      "Ġheav": 6904,
      "ĠÙĨØ¬Ø§ØŃ": 6905,
      "ĠØªØªØŃ": 6906,
      "Ø¬Ø§Ø¬": 6907,
      "Ġeasy": 6908,
      "ÙĪÙĥØ§ÙĨ": 6909,
      "Ġchem": 6910,
      "Ġago": 6911,
      "Ġplaintiff": 6912,
      "Ġpresented": 6913,
      "ributed": 6914,
      "ĠØ§ÙĦØ¬ÙĪ": 6915,
      "ĠØ§ÙĦØ´Ø±ÙĬÙģ": 6916,
      "ĠØ§ÙĦØ¥ÙĨØ¬ÙĦÙĬ": 6917,
      "CD": 6918,
      "ĠØ§ÙĦØ¬Ø§Ø±ÙĬ": 6919,
      "Ø¬ØªÙħØ¹": 6920,
      "Ø§Ø¦Ø±Ø§Øª": 6921,
      "ĠÙĪØªØ¯": 6922,
      "Ø¢Ø®Ø±": 6923,
      "ĠÙĪØ®Ø§ØµØ©": 6924,
      "ĠÙħØ§Ø°Ø§": 6925,
      "annel": 6926,
      "Ġtypes": 6927,
      "Ġwindow": 6928,
      "ĠØ£Ø±Ø¯": 6929,
      "ica": 6930,
      "ĠØ£Ø¨Ø±Ø²": 6931,
      "Ġstop": 6932,
      "Ġphysical": 6933,
      "Ġhyp": 6934,
      "ĠØ§ÙĦØ´Ø¹Ø¨ÙĬØ©": 6935,
      "ĠØ§ÙĦÙĥØª": 6936,
      "ØªØ±Ø§Ùħ": 6937,
      "ĠØ³Ø¨ÙĤ": 6938,
      "ĠØ¹Ø¨Ø§Ø³": 6939,
      "Ġrunning": 6940,
      "Ġbur": 6941,
      "Ø§Ø¯Ø§": 6942,
      "hood": 6943,
      "ĠØ§ÙĦÙĥØ¨ÙĬØ±Ø©": 6944,
      "ĠØ§ÙĦØ¢Ø®Ø±ÙĬÙĨ": 6945,
      "ĠÙĬØ°ÙĥØ±": 6946,
      "Ġfelt": 6947,
      "ĠØ£ÙĨÙģØ³": 6948,
      "ĠØ§ÙĦØ£Ø¨": 6949,
      "ØºØ§ÙĦ": 6950,
      "men": 6951,
      "oe": 6952,
      "lier": 6953,
      "Ø«ÙĪØ±": 6954,
      "ĠØ§ÙĦØ¯Ø®ÙĪÙĦ": 6955,
      "ĠÙģÙĥØ±Ø©": 6956,
      "Ġareas": 6957,
      "Ġcoming": 6958,
      "Ġlost": 6959,
      "ĠRuss": 6960,
      "ĠÙĪØ¬ÙĦ": 6961,
      "ĠSch": 6962,
      "ĠØ§ÙĦØ£Ø³Ø¹Ø§Ø±": 6963,
      "inn": 6964,
      "Ġnatural": 6965,
      "Ø§ÙĬØ¯": 6966,
      "Gr": 6967,
      "ĠÙĦÙĦÙĥ": 6968,
      "ĠJune": 6969,
      "Ġweeks": 6970,
      "actions": 6971,
      "ĠÙģÙĦÙħ": 6972,
      "ĠØ§ÙĦØ£Ø¬": 6973,
      "Ġâ": 6974,
      "ĠÙĥÙĬÙĦ": 6975,
      "ĠØ³Ø§Ø¨ÙĤ": 6976,
      "]{},": 6977,
      "ĠØ§ÙĦØ°Ø§Øª": 6978,
      "haps": 6979,
      "ils": 6980,
      "Ġproducts": 6981,
      "ĠØ§ÙĦØ£ÙĩÙĦÙĬ": 6982,
      "Ġhands": 6983,
      "Ġcred": 6984,
      "Ø¶Ø±ÙĪØ±Ø©": 6985,
      "ĠØ§ÙĦØ¯ÙĪØ±Ø©": 6986,
      "ography": 6987,
      "tered": 6988,
      "ĠØ§ÙĦØªØ®": 6989,
      "Ġanaly": 6990,
      "Ø§ÙĩØ§": 6991,
      "Ġnews": 6992,
      "ĠØ§ÙĦÙħÙĨØªØ¯Ùī": 6993,
      "Ġhope": 6994,
      "ĠØªÙĪÙģØ±": 6995,
      "Ø®ÙĬØµ": 6996,
      "Ġprimary": 6997,
      "ĠØ§ÙĦÙĤØ§Ø¯ÙħØ©": 6998,
      "Ġ},": 6999,
      "Ġleave": 7000,
      "ken": 7001,
      "Ġwasn": 7002,
      "ĠØ£Ø¯Ø§Ø¡": 7003,
      "ĠÙħÙĨØŃ": 7004,
      "ĠØ§ÙĦÙĥÙĦØ§Ùħ": 7005,
      "Ġsound": 7006,
      "ÙĨÙĬØ§Øª": 7007,
      "Ġdark": 7008,
      "96": 7009,
      "quest": 7010,
      "Ø´Ø±ÙĪØ¹": 7011,
      "Ġeffective": 7012,
      "ĠØ®Ø±Ø¬": 7013,
      "Ġquestions": 7014,
      "74": 7015,
      "ĠØ§ÙĦØ¹Ø±Ø§ÙĤÙĬ": 7016,
      "ĠSept": 7017,
      "^*": 7018,
      "that": 7019,
      "Ø³ÙĦÙĪØ¨": 7020,
      "Ġmi": 7021,
      "ĠØ§ÙĦØ¹Ø±Ø§ÙĤÙĬØ©": 7022,
      "ĠBar": 7023,
      "ĠÙħØ¤Ø®Ø±Ø§": 7024,
      "ĠØ§ÙĦØ§Ø¬": 7025,
      "ĠØ§ÙĦØªÙĨÙģÙĬØ°": 7026,
      "ÙĬÙĪÙħ": 7027,
      "ĠÙĬÙħØ«ÙĦ": 7028,
      "ÙĤØ±Ø§Ø¡": 7029,
      "ĠØ§ÙĦÙĤØ·": 7030,
      "kn": 7031,
      "ĠØ¹ÙĬØ¯": 7032,
      "ĠDav": 7033,
      "Ø·Ø§ÙĦØ¨": 7034,
      "ĠØ§Ø³ØªÙħØ±Ø§Ø±": 7035,
      "Ġproperties": 7036,
      "Ø¬ÙħØ§ÙĦÙĬ": 7037,
      "Ġincreasing": 7038,
      "ĠØ§ÙĦÙħÙĨØªØ¬Ø§Øª": 7039,
      "Ġdirectly": 7040,
      "ĠØ§ÙĦØ·ÙĦØ¨": 7041,
      "ĠØ£Ø±Ø¨Ø¹Ø©": 7042,
      "ĠØ§ÙĦØ³Ø¨Ø¨": 7043,
      "ĠÙĪØ§ÙĦØªØ¹ÙĦÙĬÙħ": 7044,
      "Ġtown": 7045,
      "ĠÙģØ±ÙĨØ³Ø§": 7046,
      "ĠØ¬ÙĬØ¯Ø©": 7047,
      "ÙĬÙĬ": 7048,
      "ĠØ§ÙĦØªÙĤØ±ÙĬØ±": 7049,
      "Ø§Ø§Ø§Ø§": 7050,
      "Ø§ØªÙĦ": 7051,
      "Ġ!=": 7052,
      "ĠØªÙĪÙĨØ³": 7053,
      "Ġindex": 7054,
      "Ð»": 7055,
      "Get": 7056,
      "Ø£ÙĥØ¯": 7057,
      "Ø¹ÙĨ": 7058,
      "fs": 7059,
      "oma": 7060,
      "ĠØ§ÙĦØŃÙĪØ§Ø±": 7061,
      "sych": 7062,
      "ĠØ§ÙĦØ¹ÙĤÙĦ": 7063,
      "ØªØ¨Ø·": 7064,
      "Ġaccom": 7065,
      "ÙĩÙħÙĬØ©": 7066,
      "ĠØ§ÙĦØ¥Ø¹ÙĦØ§ÙĨ": 7067,
      "ĠØ§ÙĦØ£Ø³ÙĩÙħ": 7068,
      "Ġtransfer": 7069,
      "ĠØ§ÙĦÙĤÙĪÙī": 7070,
      "72": 7071,
      "ĠÙĦØ°Ø§": 7072,
      "iber": 7073,
      "ĠÙĦØ§Ø¹": 7074,
      "ĠØ®ÙĦØ§ÙĦÙĩØ§": 7075,
      "ĠÙħÙĥØª": 7076,
      "px": 7077,
      "ĠØ·Ø±ØŃ": 7078,
      "Ġdeveloped": 7079,
      "ÙģÙĬÙĤ": 7080,
      "Ġfollows": 7081,
      "ĠØ§ÙĦÙħÙĪØª": 7082,
      "ĠØ¨Ø¹Ø¯ÙħØ§": 7083,
      ",,": 7084,
      "Ġscreen": 7085,
      "ÙĬÙģÙĬØ©": 7086,
      "ÏĢ": 7087,
      "Ø¶Ø§Ø¦ÙĬØ©": 7088,
      "|\\": 7089,
      "Ġcontext": 7090,
      "Ġnational": 7091,
      "Ġelements": 7092,
      "ĠØ²Ø±": 7093,
      "ÙĬØ²Ø§Øª": 7094,
      "ØŃØ±ÙĬØ±": 7095,
      "73": 7096,
      "rief": 7097,
      "Ġsle": 7098,
      "ÙĪÙĨÙĩØ§": 7099,
      "ĠØ¬ÙĬØ¯": 7100,
      "ĠSm": 7101,
      "ĠØ¹ÙĨØ§ØµØ±": 7102,
      "ĠØµØ§Ø±": 7103,
      "param": 7104,
      "Ø´ÙĥÙĦ": 7105,
      "71": 7106,
      "Ġisn": 7107,
      "ults": 7108,
      "ĠØ´Ø®ØµÙĬØ©": 7109,
      "Ġtried": 7110,
      "Ġconstant": 7111,
      "Ġpublished": 7112,
      "ĠÙĦÙĦØµ": 7113,
      "ĠØ£ÙĨØŃØ§Ø¡": 7114,
      "ĠØªØ³Ø§Ø¹Ø¯": 7115,
      "ĠØ§ÙĦØ¥Ø«": 7116,
      "Ġmach": 7117,
      "icon": 7118,
      "ĠØ§ÙĦØ³ÙĬØ§Ø³Ø©": 7119,
      "ĠØ§ÙĦØ¥ÙĨØ³Ø§ÙĨÙĬØ©": 7120,
      "ØªØ±Ø§Ùģ": 7121,
      "Ø¦ÙĬØ©": 7122,
      "bf": 7123,
      "ĠØ§ÙĦØ£Ø±Ø¯ÙĨ": 7124,
      "ĠØµØŃØ©": 7125,
      "Ġimmedi": 7126,
      "ĠØ§ÙĦÙģÙĬØ¯ÙĬÙĪ": 7127,
      "Ø§Ø®Ø±": 7128,
      "ĠÙĦØ¹Ø¨Ø©": 7129,
      "ĠØ§ÙĦÙħØ¹Ø§Ø±Ø¶Ø©": 7130,
      "sm": 7131,
      "ĠÙħØ¹Ø±ÙģØ©": 7132,
      "point": 7133,
      "Ġparameters": 7134,
      "Ġgas": 7135,
      "Ġevalu": 7136,
      "ØªÙĬØ§Ø¬Ø§Øª": 7137,
      "Ġidentified": 7138,
      "Ø¦ÙĬ": 7139,
      "Ġalleg": 7140,
      "Ġsamples": 7141,
      "Ø¯Ø±Ø¬Ø©": 7142,
      "Ġwhose": 7143,
      "ĠÙĦÙĦØ§ÙĨ": 7144,
      "Ġrelease": 7145,
      "ĠÙĨÙĪØ±": 7146,
      "ÙĪØ§ÙħÙĦ": 7147,
      "ĠØªØ¸ÙĩØ±": 7148,
      "ĠØ§ÙĦÙĨÙĤÙĦ": 7149,
      "lease": 7150,
      "ĠInc": 7151,
      "Ġknowledge": 7152,
      "ĠÙħØ·ÙĦ": 7153,
      "Not": 7154,
      "ĠÙĥØ´Ùģ": 7155,
      "acc": 7156,
      "Ġdeep": 7157,
      "ements": 7158,
      "sim": 7159,
      "ĠÙĪÙĤØ¹": 7160,
      "ĠÙħÙĩÙħ": 7161,
      "ĠSim": 7162,
      "Ġpolicy": 7163,
      "Ġderiv": 7164,
      "ĠØ§ÙĦØ£ÙĤ": 7165,
      "ĠÙĪÙĤÙģ": 7166,
      "cm": 7167,
      "ivil": 7168,
      "Ġmatch": 7169,
      "Ø¹ÙĦØ§Ø¬": 7170,
      "ĠÙĩÙĨ": 7171,
      "ĠØ³ÙĪØ±ÙĬØ©": 7172,
      "Ġwrite": 7173,
      "ĠØ±Ø¤ÙĬØ©": 7174,
      "tilde": 7175,
      "ĠÙĬØ³Ø§Ø¹Ø¯": 7176,
      "ĠÙħØ¬ØªÙħØ¹": 7177,
      "Ġcontroll": 7178,
      "ĠØ¹Ø¨Ø§Ø±Ø©": 7179,
      "ĠØªÙĤØ¹": 7180,
      "ĠÙħÙĬ": 7181,
      "ĠØŃÙģØ¸": 7182,
      "ellow": 7183,
      "ĠLa": 7184,
      "Ġframe": 7185,
      "Ġconsum": 7186,
      "Ġgenes": 7187,
      "ega": 7188,
      "Ġgrad": 7189,
      "ĠÙĪØ¨Ø§ÙĦ": 7190,
      "ĠGl": 7191,
      "Ġpack": 7192,
      "Ġvalid": 7193,
      "asons": 7194,
      "ĠØ¥Ø´": 7195,
      "Ø·Ø¨ÙĬÙĤ": 7196,
      "uel": 7197,
      "clus": 7198,
      "Ġselect": 7199,
      "Â¸": 7200,
      "ØªØ©": 7201,
      "ĠÙĬØ¹ÙĪØ¯": 7202,
      "Ġnull": 7203,
      "ĠØ®ÙħØ³Ø©": 7204,
      "Ġstatus": 7205,
      "Ġband": 7206,
      "ĠØ§ÙĦØ¥ÙĨØªØ§Ø¬": 7207,
      "Ġrandom": 7208,
      "ĠÙĤÙĬØ§Ùħ": 7209,
      "ĠØªØ¯Ø®ÙĦ": 7210,
      "ĠØ¥Ø¹ÙĦØ§ÙĨ": 7211,
      "Ġalthough": 7212,
      "ĠØ¹Ø§Ø¯Ø©": 7213,
      "ĠØ§ÙĦØŃØ§ÙĦÙĬØ©": 7214,
      "ĠØŃÙĤÙĬÙĤØ©": 7215,
      "Ø®Ø§ÙĦ": 7216,
      "ĠØ§ÙĦÙĦØ§Ø¹Ø¨": 7217,
      "EL": 7218,
      "ĠØŃØ§ÙĪÙĦ": 7219,
      "ĠØ§ÙĦÙĨØ²": 7220,
      "Ġ500": 7221,
      "ÙĤÙĪÙĦÙĩ": 7222,
      "81": 7223,
      "Ġrefer": 7224,
      "ĠØ§ÙĦØ±Ø§Ø¨Ø¹": 7225,
      "itter": 7226,
      "ĠØ±ÙĪØŃ": 7227,
      "ĠØ·Ø±ÙĤ": 7228,
      "Ġplayers": 7229,
      "ĠÙĪØ°ÙĥØ±": 7230,
      "ÙĪØ§Ø¬ÙĩØ©": 7231,
      "ĠØ§ÙĦØŃÙĪØ«": 7232,
      "Ġconfig": 7233,
      "ĠÙĪØµÙĪÙĦ": 7234,
      "ØªÙħÙĬØ²": 7235,
      "ĠÙĪØ¨Ø±": 7236,
      "erson": 7237,
      "ÙĤÙĦØ§ÙĦ": 7238,
      "ĠØ³ØªÙĥÙĪÙĨ": 7239,
      "ĠØ§ÙĦØ¬ÙĪÙĬØ©": 7240,
      "ĠØ§ØªØ®Ø§Ø°": 7241,
      "Ġdetermine": 7242,
      "Ã³n": 7243,
      "ĠØ§ÙĦÙĦØŃ": 7244,
      "Ġinstall": 7245,
      "ĠÙĦØªØŃÙĤÙĬÙĤ": 7246,
      "ÙĥÙĨØ¯Ø±ÙĬØ©": 7247,
      "ØŃØ¯Ø¯": 7248,
      "Ġtheory": 7249,
      "pite": 7250,
      "ĠCounty": 7251,
      "Ad": 7252,
      "ĠØ³ÙĬØ§Ø³ÙĬØ©": 7253,
      "ĠØ£Ø«Ø±": 7254,
      "ÂĢ": 7255,
      "rial": 7256,
      "ĠØ§ÙĦÙħØŃØ§ÙģØ¸": 7257,
      "Ġforward": 7258,
      "ĠÙĦÙĦØªØ¹": 7259,
      "ĠÃł": 7260,
      "ĠØªÙħØ«ÙĦ": 7261,
      "ille": 7262,
      "Ġcharg": 7263,
      "Ġround": 7264,
      "ĠØ§ÙĦØµØºÙĬØ±Ø©": 7265,
      "pper": 7266,
      "Ġsal": 7267,
      "Ġlimited": 7268,
      "ĠÙĤÙĦØª": 7269,
      "Ġpict": 7270,
      "Ø¬ØŃ": 7271,
      "ÙĦÙĬÙĥ": 7272,
      "ĠØ§ÙĦØ±Ø¬Ø§ÙĦ": 7273,
      "ĠØ§ÙĦØ±Ø¯": 7274,
      "ĠÙĦÙĦØŃØµÙĪÙĦ": 7275,
      "ĠØ§ÙĨØªØ´Ø§Ø±": 7276,
      "ris": 7277,
      "ĠØ§ÙĦØ£Ø¬ÙĨØ¨ÙĬØ©": 7278,
      "ĠØ§ÙĦØ±ÙĬØ§Ø¶ÙĬØ©": 7279,
      "ĠØ¹ÙĩØ¯": 7280,
      "ĠØµØ¯Ø±": 7281,
      "Ġgreater": 7282,
      "Ø£Ø³ÙĬØ³": 7283,
      "anger": 7284,
      "icles": 7285,
      "Î¼": 7286,
      "ĠÙĨØ³Øª": 7287,
      "Ġthemselves": 7288,
      "ĠØ¨Ø§ÙĦÙģØ¹ÙĦ": 7289,
      "Ġbott": 7290,
      "ĠÙħØ¯Ø±Ø³Ø©": 7291,
      "ĠÙĨØ¸Ø±Ø§": 7292,
      "ĠÙĪØ§Ø´ÙĨØ·ÙĨ": 7293,
      "Ġsort": 7294,
      "Ġavoid": 7295,
      "ĠØªÙĤÙĦ": 7296,
      "Ø²Ø§ÙĦØ©": 7297,
      "ĠØ¢ÙĦØ©": 7298,
      "ÙĥØªØ¨": 7299,
      "ÙĨØ¯ÙĬØ©": 7300,
      "ĠØ§ÙĦØ«ÙĤØ§ÙģØ©": 7301,
      "ÙĤØ±Ø£": 7302,
      "Ġwatch": 7303,
      "ĠØ¹ÙĨÙĪØ§ÙĨ": 7304,
      "Ñı": 7305,
      "ĠØ§ÙĦØŃØ§ÙĦ": 7306,
      "Ġexcept": 7307,
      "Ø¦ÙĦØ©": 7308,
      "Ġfight": 7309,
      "ĠØºØ±ÙģØ©": 7310,
      "ĠØ§ÙĦÙħÙĪØ§ÙĤØ¹": 7311,
      "Ġmedical": 7312,
      "ager": 7313,
      "ĠØªØ¬Ø±Ø¨Ø©": 7314,
      "ĠØ¨ÙĥØ±": 7315,
      "ming": 7316,
      "ran": 7317,
      "Ġheard": 7318,
      "och": 7319,
      "Ġtraining": 7320,
      "culate": 7321,
      "ĠÙĥÙĦÙĩØ§": 7322,
      "ĠØ®Ø·Ø±": 7323,
      "ĠØ§ÙĦØªØ³Ø¬ÙĬÙĦ": 7324,
      "ĠÙħØ«ÙĦØ§": 7325,
      "ĠAugust": 7326,
      "ĠJuly": 7327,
      "error": 7328,
      "Ġmis": 7329,
      "Ġanswer": 7330,
      "ĠØ§ÙĦØ£ÙħÙĬØ±ÙĥÙĬ": 7331,
      "Ġinvention": 7332,
      "Ġ\"\"": 7333,
      "ĠÙħØ´Ø§ÙĩØ¯Ø©": 7334,
      "fra": 7335,
      "Ġbed": 7336,
      "ĠØ¹ÙħØ§ÙĨ": 7337,
      "ĠØ§ÙĦØŃØ¯ÙĬØ¯": 7338,
      "Ġsoftware": 7339,
      "De": 7340,
      "ĠØ§ÙĦØ¥Ø³Øª": 7341,
      "Ġdraw": 7342,
      "ÙĦØ§ÙħØ§Øª": 7343,
      "ius": 7344,
      "ĠÙĪØ§ÙĦÙĩ": 7345,
      "ĠSome": 7346,
      "ĠÙĪØ§Ø±": 7347,
      "mar": 7348,
      "ÙĪÙĬØ¯": 7349,
      "ĠÙħÙĨØ§Ùģ": 7350,
      "Ġfavor": 7351,
      "trans": 7352,
      "Ġvan": 7353,
      "Ã£o": 7354,
      "ĠØ§ÙĦÙĤÙĬØ§Ø¯Ø©": 7355,
      "ĠÙħÙĪØ¹Ø¯": 7356,
      "Ġful": 7357,
      "Ø¢Øª": 7358,
      "Ġveh": 7359,
      "ĠÙģØ±Øµ": 7360,
      "Ġmention": 7361,
      "script": 7362,
      "oles": 7363,
      "Ġnature": 7364,
      "ĠØ¨ÙĬÙĨÙĩØ§": 7365,
      "ĠØ¥ÙĨÙħØ§": 7366,
      "Ġpreviously": 7367,
      "Ġincludes": 7368,
      "ĠØ§ÙĦÙħØ³ÙĦÙħ": 7369,
      "urg": 7370,
      "ĠÙĬØ³ØªØ®Ø¯Ùħ": 7371,
      "ashing": 7372,
      "Ġapplied": 7373,
      "Ġlos": 7374,
      "vere": 7375,
      "ĠØ§ÙĦÙħÙĪØ¸": 7376,
      "SD": 7377,
      "ĠØªÙħØ±": 7378,
      "ĠØ¨ØµÙĪØ±Ø©": 7379,
      "ĠÙĪÙĦÙĨ": 7380,
      "fection": 7381,
      "apter": 7382,
      "earch": 7383,
      "ĠØ£Ø³Ø¨Ø§Ø¨": 7384,
      "Ġbasis": 7385,
      "gn": 7386,
      "ĠØ§ÙĦÙĪØ¬": 7387,
      "ĠJanuary": 7388,
      "Ġmice": 7389,
      "Ġled": 7390,
      "Ġbroad": 7391,
      "ios": 7392,
      "ĠØ·ÙĪÙĬÙĦ": 7393,
      "Ġcover": 7394,
      "ĠØ§ÙĦØ±Ùĥ": 7395,
      "ĠØ§ÙĦØ±Ø¦ÙĬØ³ÙĬ": 7396,
      "ĠØ§ÙĦØ¹ÙĪØ¯Ø©": 7397,
      "zy": 7398,
      "Ġmap": 7399,
      "Ø±ÙĤÙħ": 7400,
      "lementary": 7401,
      "ØµÙī": 7402,
      "reng": 7403,
      "ĠApril": 7404,
      "dev": 7405,
      "ĠST": 7406,
      "ĠØ§ÙĦØªØ¨": 7407,
      "ĠÙĨØ´Ø§Ø·": 7408,
      "ĠÙĬØ²Ø§ÙĦ": 7409,
      "ĠÙĬØ²": 7410,
      "ĠØŃØ§Ø¬Ø©": 7411,
      "Ø·ØŃ": 7412,
      "ĠØ§ÙĦÙĪØ¬Ùĩ": 7413,
      "ĠÙĥÙĦØ§": 7414,
      "Ġoffice": 7415,
      "ĠØ§ÙĦØªÙĤÙĦÙĬ": 7416,
      "Ġgames": 7417,
      "Ġliving": 7418,
      "ĠØ§ÙĦÙĤØ¯ÙĬÙħØ©": 7419,
      "ĠØ´Ø§Ø¡": 7420,
      "ĠÙĥÙĦÙĩ": 7421,
      "Ø¯ÙĪÙĨ": 7422,
      "Ø¹ÙĬÙħ": 7423,
      "ĠØµÙĨØ§Ø¹Ø©": 7424,
      "ĠØ§ÙĦÙĪØ²ÙĬØ±": 7425,
      "ĠÙĤÙĬØ§Ø¯Ø©": 7426,
      "ĠÙģÙĥØ§ÙĨ": 7427,
      "ĠØªÙģØ§ØµÙĬÙĦ": 7428,
      "ĠØ§ÙĦØ¥ÙĦÙĥØªØ±ÙĪÙĨÙĬ": 7429,
      "function": 7430,
      "ĠÙģÙĩØ°Ø§": 7431,
      "ĠÙĥØ§ÙħÙĦØ©": 7432,
      "They": 7433,
      "ĠJust": 7434,
      "ĠØ¨ÙĬØ¯": 7435,
      "lor": 7436,
      "Ġusually": 7437,
      "include": 7438,
      "inated": 7439,
      "Qu": 7440,
      "Ġautom": 7441,
      "path": 7442,
      "fered": 7443,
      "ĠØ§ÙĦØ¬Ø²Ø¡": 7444,
      "Ġsecur": 7445,
      "Ġparticularly": 7446,
      "Ġability": 7447,
      "Ġsn": 7448,
      "Ġstyle": 7449,
      "ĠØºØ±Ø¨": 7450,
      "ĠØ§ÙĦØªÙĥ": 7451,
      "ĠØ·Ø§ÙĦ": 7452,
      "Ġpull": 7453,
      "roph": 7454,
      "ĠØ§ÙĦØ¹ÙĦØ§ÙĤØ©": 7455,
      "Ø§Ø¨ÙĬÙĨ": 7456,
      "ĠØ§ÙĦØ§Ø®Ø¨Ø§Ø±": 7457,
      "ĠØ§ÙĦÙĤÙĪØ©": 7458,
      "ØŃÙģ": 7459,
      "za": 7460,
      "cember": 7461,
      "Ġaw": 7462,
      "ĠÙĦØ£ÙĪÙĦ": 7463,
      "ĠØ§ÙĪÙĦ": 7464,
      "Ġcompan": 7465,
      "augh": 7466,
      "Ø¨ÙĨØ§Ø¡": 7467,
      "Ġ2004": 7468,
      "ĠØ§ÙĦØ³ÙģØ±": 7469,
      "Ġreduced": 7470,
      "ĠØ§ÙĦÙģÙĪØ²": 7471,
      "Ġaud": 7472,
      "ĠØ§ÙĦÙħØ¯Ø§Ø±Ø³": 7473,
      "ĠJapan": 7474,
      "ĠØ§ÙĦØ®Ø±": 7475,
      "orks": 7476,
      "Ãĳ": 7477,
      "ĠØ§ÙĦØ³Ø¹Ø±": 7478,
      "ĠØ£ØµÙĦ": 7479,
      "ĠØ¥ØŃ": 7480,
      "pen": 7481,
      "Ġbox": 7482,
      "}(\\": 7483,
      "Ø«ÙĨØ§Ø¡": 7484,
      "Ġrespond": 7485,
      "ĠØ´Ø¨Ø§Ø¨": 7486,
      "ĠHouse": 7487,
      "]^": 7488,
      "ournal": 7489,
      "Ġopportun": 7490,
      "ĠØ¯ÙĦÙĬÙĦ": 7491,
      "ØºØ¨Ø©": 7492,
      "ĠØ¹Ø§Ø¯": 7493,
      "ĠÙĤÙĬÙħ": 7494,
      "ÙĬÙĨØº": 7495,
      "****************": 7496,
      "Ġgenerally": 7497,
      "ĠØ§ÙĦØŃÙĤÙĪÙĤ": 7498,
      "rupt": 7499,
      "print": 7500,
      "ÙħØ±Ø©": 7501,
      "ĠÙĦØ¯ÙĬÙĩØ§": 7502,
      "MA": 7503,
      "ĠØªÙĪØ¬Ø¯": 7504,
      "Ġprep": 7505,
      "ĠØ§ÙĦÙħÙĨØ¸ÙħØ©": 7506,
      "ĠØ§ÙĦØ·Ø¨ÙĬØ¹ÙĬØ©": 7507,
      "ĠÙĪÙģØ§Ø©": 7508,
      "ĠØ£ÙħØ±ÙĬÙĥØ§": 7509,
      "Ġwebs": 7510,
      "ĠWhile": 7511,
      "ĠAmerica": 7512,
      "attle": 7513,
      "igen": 7514,
      "Ø¬ÙĬØ±": 7515,
      "ĠÙĤØª": 7516,
      "ĠØ§ÙĦÙħØ³Ø¬Ø¯": 7517,
      "ĠØ³Ø¨ØŃØ§ÙĨÙĩ": 7518,
      "ĠSer": 7519,
      "Ġdead": 7520,
      "Ø§Ø¦ÙĨ": 7521,
      "iments": 7522,
      "Ø³Ø±Ø§Ø¦ÙĬÙĦÙĬØ©": 7523,
      "Ġcontain": 7524,
      "ĠÙĬØ¸ÙĩØ±": 7525,
      "Ø§Ø²ÙĨ": 7526,
      "Ġrecomm": 7527,
      "ĠØ³ÙĬØ§Ø±Ø©": 7528,
      "Ø´ÙĩØ¯": 7529,
      "ĠÙĤÙĪÙĬØ©": 7530,
      "Ġreference": 7531,
      "anch": 7532,
      "aches": 7533,
      "Ġtou": 7534,
      "ÙģØ§ÙĪØ¶Ø§Øª": 7535,
      "Ġstage": 7536,
      "ĠØ¬ÙħØ§ÙĦ": 7537,
      "ĠØ§ÙĦØŃØ³ÙĨ": 7538,
      "ĠØ§ÙĦØ§Ùĥ": 7539,
      "ØºØ§Ø¡": 7540,
      "ĠÙĤØµØ©": 7541,
      "ĠÙħÙĩÙħØ§": 7542,
      "Ø±ÙĬØ¨ÙĬØ©": 7543,
      "ĠØ§ÙĦÙħØ¤Ø³Ø³Ø©": 7544,
      "ĠØ¨Ø±ÙĬØ·": 7545,
      "ÙĤÙĦØ©": 7546,
      "ĠØ¨ØªØŃ": 7547,
      "estern": 7548,
      "Ġanim": 7549,
      "Ġengine": 7550,
      "Ġarticle": 7551,
      "Ġfast": 7552,
      "ÙĤÙĪØ·": 7553,
      "isions": 7554,
      "ĠTrump": 7555,
      "Ġroad": 7556,
      "ÙĬÙĦÙĬØ©": 7557,
      "ÙħÙĥØ§ÙĨ": 7558,
      "ĠÙģÙĬØ¯ÙĬÙĪ": 7559,
      "vention": 7560,
      "Ġcompet": 7561,
      "illing": 7562,
      "ĠØ§ÙĦÙħØ«Ø§ÙĦ": 7563,
      "ĠØ§ÙĦØ£Ø±Ø§Ø¶ÙĬ": 7564,
      "ovember": 7565,
      "met": 7566,
      "Ġdro": 7567,
      "ĠØ§ÙĦÙģÙĥØ±": 7568,
      "Ġprot": 7569,
      "Ġ48": 7570,
      "ĠÙĥØ´": 7571,
      "ÙĦÙħÙĬ": 7572,
      "ĠÙĪØ¨Ø¯": 7573,
      "Ġvict": 7574,
      "ĠØ§ÙĦÙĨØªØ§Ø¦Ø¬": 7575,
      "ÙģØ§ÙĦ": 7576,
      "oul": 7577,
      "Ø®Ø±Ø©": 7578,
      "ĠØ§ÙĦØ·Ø±ÙĬÙĤØ©": 7579,
      "ociety": 7580,
      "ĠFurther": 7581,
      "Ø§ÙĪÙĨ": 7582,
      "ĠØ§ÙĦÙĤØ§Ø¦ÙħØ©": 7583,
      "ĠØ§ÙĦÙĪÙĦ": 7584,
      "Ġfriends": 7585,
      "ĠPresident": 7586,
      "Ġarray": 7587,
      "ĠÙĦØ¶": 7588,
      "ĠØºØ±": 7589,
      "Err": 7590,
      "array": 7591,
      "lev": 7592,
      "Ø¯Ø±Ø§Øª": 7593,
      "ĠØ§ÙĦØ¨ÙĨØ§Ø¡": 7594,
      "ĠØ®ÙĦØ§Ùģ": 7595,
      "ØªØ§Ø¨Ø¹Ø©": 7596,
      "Ps": 7597,
      "ĠÙĦØ·": 7598,
      "Ġdirection": 7599,
      "ĠØ§ÙĦÙħÙĪØ§Ø·ÙĨ": 7600,
      "Ġcommand": 7601,
      "2017": 7602,
      "Ø®ØªØ§Ø±": 7603,
      "ĠÙĨÙĤØ§Ø·": 7604,
      "ĠØ£Ø¯Ùī": 7605,
      "Ġalone": 7606,
      "ĠÙģØ³": 7607,
      "ĠDNA": 7608,
      "ĠÙħØ´Ø§ÙĥÙĦ": 7609,
      "ĠØ£Ø±Ø¨Ø¹": 7610,
      "rangle": 7611,
      "Ø³Ø¨ÙĤ": 7612,
      "Ġindependent": 7613,
      "Ġ(\\[": 7614,
      "ĠØ§ÙĦØ¹Øµ": 7615,
      "ĠØ¨ÙħØ±": 7616,
      "Â½": 7617,
      "ĠØ£Ø¬Ø±": 7618,
      "UN": 7619,
      "ĠHer": 7620,
      "ĠTherefore": 7621,
      "ÙĪÙĦØ§ÙĬØ©": 7622,
      "Ø¯ÙĤ": 7623,
      "\\])": 7624,
      "ÙĪØ§Ø¯": 7625,
      "ĠØ£ÙģØ±Ø§Ø¯": 7626,
      "acement": 7627,
      "Ġ2003": 7628,
      "ĠÙģÙħ": 7629,
      "ĠAg": 7630,
      "otic": 7631,
      "Ġspeed": 7632,
      "PL": 7633,
      "ĠØ§ÙĦÙģØ±ÙĨØ³ÙĬØ©": 7634,
      "Ġcand": 7635,
      "Ġrepe": 7636,
      "ĠSince": 7637,
      "ĠØªØ¬Ø¯": 7638,
      "Ġlayer": 7639,
      "Ø§ÙĪÙĬØ©": 7640,
      "plate": 7641,
      "ĠØ§ÙĦØ¥ÙĦÙĥØªØ±ÙĪÙĨÙĬØ©": 7642,
      "Ø§Ø¬Ø¦ÙĬÙĨ": 7643,
      "Ø®ÙĬ": 7644,
      "Ġonline": 7645,
      "ĠØ§ÙĦÙĩØ§ØªÙģ": 7646,
      "Ġ(\"": 7647,
      "ĠØ§ÙĦØ£ØŃÙħØ±": 7648,
      "ĠØ·ÙĪÙĦ": 7649,
      "ĠØ§ÙĦÙĥØ§ØªØ¨": 7650,
      "Ø§ÙĬÙĦ": 7651,
      "ĠÙĬØ±Ùī": 7652,
      "ĠÙĥÙģ": 7653,
      "ĠÙĬØ¶": 7654,
      "iven": 7655,
      "osph": 7656,
      "ĠChar": 7657,
      "Ø«ÙħØ§Ø±Ø§Øª": 7658,
      "ĠÙĦÙĦØªØŃ": 7659,
      "ĠØ¨ÙĦØ§Ø¯": 7660,
      "Ø®Ø¨": 7661,
      "ØªØ§ÙĨ": 7662,
      "joy": 7663,
      "ÙĤØ§Ø°": 7664,
      "ĠØ¨Ø§Ø³": 7665,
      "ĠSeptember": 7666,
      "Ġshare": 7667,
      "ĠFirst": 7668,
      "ÙĪÙĬÙĩ": 7669,
      "ĠÙĪØ§ÙĦØ¹ÙħÙĦ": 7670,
      "ĠØ³Ø§Ø¨": 7671,
      "ĠFeb": 7672,
      "ĠØ§ÙĦØ´ÙħØ§ÙĦÙĬØ©": 7673,
      "ĠÙĪØ£ÙĬ": 7674,
      "vey": 7675,
      "Ġdriv": 7676,
      "ĠIS": 7677,
      "ĠØ¯Ø§Ø¹Ø´": 7678,
      "isms": 7679,
      "ondon": 7680,
      "Ġactive": 7681,
      "Ø´ÙĬØ±": 7682,
      "hest": 7683,
      "ube": 7684,
      "Ġregular": 7685,
      "ÙĨØ§ÙĬØ©": 7686,
      "ĠVal": 7687,
      "ĠØ¹ÙĦÙĬÙĥÙħ": 7688,
      "Ġreleased": 7689,
      "gor": 7690,
      "cast": 7691,
      "MT": 7692,
      "ĠØ¨Ø£ÙĨÙĩØ§": 7693,
      "Ġnumbers": 7694,
      "rench": 7695,
      "Ġunit": 7696,
      "ĠÙħØ¹ÙĬÙĨØ©": 7697,
      "Ġ36": 7698,
      "ĠWest": 7699,
      "ĠÙħØ¯Ø±ÙĬØ¯": 7700,
      "Ġpresident": 7701,
      "Ø§ÙĨØ³": 7702,
      "Value": 7703,
      "Ø§Ø¯Ø±Ø§Øª": 7704,
      "ports": 7705,
      "ØµØ¯Ø±": 7706,
      "ĠOur": 7707,
      "Ġbehavior": 7708,
      "Ġexpress": 7709,
      "atives": 7710,
      "ĠHere": 7711,
      "ĠØ§ÙĦØŃÙħÙĦ": 7712,
      "ĠØ§ÙĦØ£Ø¹ÙĦÙī": 7713,
      "ental": 7714,
      "ĠØ¬ÙħØ¹ÙĬØ©": 7715,
      "rite": 7716,
      "ĠØ£Ø¬ÙĩØ²Ø©": 7717,
      "ĠØ§ÙĦØ±Ø³ÙħÙĬØ©": 7718,
      "ĠØ§ÙĦØ¨Ø±ÙĬØ·Ø§ÙĨÙĬØ©": 7719,
      "ĠSu": 7720,
      "ĠØ§ÙĦØ¯ÙĬÙħÙĤØ±Ø§Ø·ÙĬØ©": 7721,
      "Ø³Ø¬ÙĬÙĦ": 7722,
      "Ġstatement": 7723,
      "bum": 7724,
      "Le": 7725,
      "ĠØ³ÙĦÙħØ§ÙĨ": 7726,
      "ĠÙĦÙĦÙħØ³": 7727,
      "Ġtitle": 7728,
      "ĠØ¥Ùģ": 7729,
      "ĠØ§ÙĦØŃØ¬Ø±": 7730,
      "ĠØ§ÙĦØ±Ø³ÙħÙĬ": 7731,
      "ØªØµÙģ": 7732,
      "Ġtradition": 7733,
      "93": 7734,
      "Ġ[*": 7735,
      "ØªÙĤÙĦ": 7736,
      "Ø®Ø·ÙĬØ·": 7737,
      "Ġclaims": 7738,
      "ĠØµÙĬØ§ÙĨØ©": 7739,
      "ĠØ§ÙĦØªØ§ÙĦÙĬØ©": 7740,
      "ĠØ§ÙĦÙģØ¹": 7741,
      "ĠÙĦÙĬÙĦØ©": 7742,
      "ĠÙħØŃÙĦ": 7743,
      "ĠÙħÙĤØ§Ø±ÙĨØ©": 7744,
      "ĠSw": 7745,
      "Ġbrought": 7746,
      "Ġimages": 7747,
      "Ġ&&": 7748,
      "ĠÙĥØ§Ùħ": 7749,
      "ĠÙĪØ£ÙĨØ§": 7750,
      "urb": 7751,
      "unk": 7752,
      "ĠOctober": 7753,
      "ĠÙħØ¯Ø©": 7754,
      "ĠÙĪÙħØ³Øª": 7755,
      "ØºÙĦØ§ÙĦ": 7756,
      "ĠÙĪØ§ÙĦÙħØ¤": 7757,
      "Ø«Ø¨Øª": 7758,
      "omen": 7759,
      "92": 7760,
      "ÙħØ§Ùħ": 7761,
      "Ø§ÙĤÙģ": 7762,
      "Ġopin": 7763,
      "ĠÙħØ±Ø§Øª": 7764,
      "cdot": 7765,
      "aries": 7766,
      "Ø§ÙĨÙī": 7767,
      "Ġimpl": 7768,
      "ĠÙĥØ³Ø§Ø±Ø©": 7769,
      "TH": 7770,
      "2016": 7771,
      "bon": 7772,
      "ĠØŃØ²": 7773,
      "ĠÙĪØ£ÙĨÙĩ": 7774,
      "ÙĨØ¯ÙĨ": 7775,
      "ĠØ§ÙĦÙĪØŃÙĬØ¯": 7776,
      "Ġ09": 7777,
      "aker": 7778,
      "ĠØ§ÙĦÙģÙĬÙĦÙħ": 7779,
      "Ġ:=": 7780,
      "ĠØ§ÙĦØŃØ¯ÙĬØ«Ø©": 7781,
      "Ġaltern": 7782,
      "ui": 7783,
      "ĠØ¥ÙĬ": 7784,
      "Ġpractice": 7785,
      "Ġil": 7786,
      "Ġhon": 7787,
      "Ġapproxim": 7788,
      "ÙĦØ§ÙĨ": 7789,
      "ĠØªÙħØª": 7790,
      "ĊĠĠĠĠĠĠ": 7791,
      "ĠØ¨Ø§ÙĦÙĦÙĩ": 7792,
      "Ġjudgment": 7793,
      "ØªØªØ§ØŃ": 7794,
      "ĠØ§ÙĦØºØ±Ø¨": 7795,
      "ĠØ§ÙĦØ¨ÙĬØ¦Ø©": 7796,
      "Ðº": 7797,
      "Ġaccur": 7798,
      "ĠÙĪØ§ÙĦÙħØŃ": 7799,
      "cell": 7800,
      "*~": 7801,
      "ners": 7802,
      "Ġsong": 7803,
      "gy": 7804,
      "Ġoil": 7805,
      "Ġdifferences": 7806,
      "ĠØ§ÙĦØ±Ùħ": 7807,
      "Ġball": 7808,
      "Ø¯Ø±Ø¬": 7809,
      "ĠØ§ÙĦØ£Ø¨ÙĬØ¶": 7810,
      "ĠØ¶Ø±Ø¨": 7811,
      "Ġreach": 7812,
      "ĠÙģÙĬØ±ÙĪØ³": 7813,
      "ĠSuppose": 7814,
      "ĠØ§ÙĦØŃØ§ÙĦØ§Øª": 7815,
      "Ġund": 7816,
      "ĠØ§ÙĦØªØ±ÙĥÙĬØ©": 7817,
      "ĠØ§ÙĦÙħÙħÙĥÙĨ": 7818,
      "Ġsqu": 7819,
      "ĠØ§ÙĦÙħÙĥØªØ¨": 7820,
      "ĠÙģÙĪØ²": 7821,
      "Ø¹ÙħØ§Ø±": 7822,
      "ĠØ£ÙģØ±ÙĬÙĤÙĬØ§": 7823,
      "Ġprofess": 7824,
      "Ġanyone": 7825,
      "ĠNow": 7826,
      "Ġplayed": 7827,
      "Ġtakes": 7828,
      "Ġhref": 7829,
      "Ġmessage": 7830,
      "ĠØ§ÙĦÙħØ´ÙĥÙĦØ©": 7831,
      "Ø§ÙĤØ´Ø©": 7832,
      "ÙģØ±Ø¯": 7833,
      "ÙĪÙĦÙĬÙĨ": 7834,
      "Ġwrote": 7835,
      "ĠØ§ÙĦÙĨØ¨": 7836,
      "Ġcenter": 7837,
      "ĠØ§ÙĦØŃØ³ÙĬÙĨ": 7838,
      "Ø¤ÙĬØ©": 7839,
      "ØªØ±Ø§Øª": 7840,
      "ĠØ§ÙĦÙħØ±ÙĥØ²ÙĬ": 7841,
      "ĠØ§ÙĦØ¯ÙĤÙĬÙĤØ©": 7842,
      "ØºÙĦØ§ÙĤ": 7843,
      "Ġ33": 7844,
      "Ø·Ø±ØŃ": 7845,
      "ĠÙĬÙĤÙĦ": 7846,
      "Ġnote": 7847,
      "Ġconstruct": 7848,
      "ØªÙĬØŃ": 7849,
      "ĠÙĪÙĬÙĦ": 7850,
      "Ġ/*": 7851,
      "Ġemer": 7852,
      "ĠÙħÙĪØ³Ùī": 7853,
      "ĠØ¨ØºØ¯Ø§Ø¯": 7854,
      "Ġoffer": 7855,
      "Ġwriting": 7856,
      "pan": 7857,
      "Ġbrain": 7858,
      "Ġens": 7859,
      "ĠØ§ÙĦØ£ÙĦ": 7860,
      "top": 7861,
      "âĢĥ": 7862,
      "ÙĪÙĬÙĤ": 7863,
      "ÏĤ": 7864,
      "aign": 7865,
      "ĠØ§ÙĦØ¥Ø³Ø±Ø§Ø¦ÙĬÙĦÙĬØ©": 7866,
      "ĠØ´Ø§Ø±Ùĥ": 7867,
      "ĠÙģØ±ÙĤ": 7868,
      "lation": 7869,
      "ĠØ§ÙĦØ³Ø¬": 7870,
      "ÙĨÙĬØ¹": 7871,
      "ĠØ¥Ø¬Ø±Ø§Ø¡Ø§Øª": 7872,
      "Ġbuilt": 7873,
      "ĠØ§ÙĦØªÙĩ": 7874,
      "ĠEnglish": 7875,
      "ĠÙĦØ¬ÙħÙĬØ¹": 7876,
      "Ø«ÙħØ§ÙĨ": 7877,
      "ØªØ±ÙĬ": 7878,
      "ĠAP": 7879,
      "ĠØ§Ø²": 7880,
      "ĠØ®ÙĬØ§Ø±Ø§Øª": 7881,
      "One": 7882,
      "ĠØ§ÙĦØ¯Ø³ØªÙĪØ±": 7883,
      "ĠØªØŃØªÙĪÙĬ": 7884,
      "Ø·Ø¨Ø§Ø¡": 7885,
      "Ġfeed": 7886,
      "ĠÙħØ§ÙĦÙĥ": 7887,
      "ĠØªØºÙĬØ±": 7888,
      "ayer": 7889,
      "Ġsaying": 7890,
      "ufact": 7891,
      "rang": 7892,
      "Ø±ÙĪÙĬ": 7893,
      "osure": 7894,
      "la": 7895,
      ")$.": 7896,
      "undred": 7897,
      "ibrary": 7898,
      "ĠÙĦÙĦÙħØ³Øª": 7899,
      "ĠØ§ÙĨØ®ÙģØ§Ø¶": 7900,
      "ĠØ§ÙĦØ¹ÙĦÙħÙĬ": 7901,
      "Ø£ØªÙĬ": 7902,
      "Ø§Ø±Ùģ": 7903,
      "ĠØ¨Ø§Ø¹ØªØ¨Ø§Ø±": 7904,
      "ĠØ§ÙĦØªØ¹Ø¨": 7905,
      "ĠÙĦÙĬÙĨ": 7906,
      "ĠØ¹Ø±Ø¨ÙĬØ©": 7907,
      "Ø§ÙĦØªØ²Ø§Ùħ": 7908,
      "ãģ®": 7909,
      "ÙĬÙĤÙī": 7910,
      "Ġsecurity": 7911,
      "Ġter": 7912,
      "deed": 7913,
      "Ġdensity": 7914,
      "ØºØ±Ø¨": 7915,
      "Do": 7916,
      "ĠÐ¿": 7917,
      "Ġcorresponding": 7918,
      "ĠÙħØŃØ·Ø©": 7919,
      "atform": 7920,
      "Ġsold": 7921,
      "ÙħØ§ÙĦÙĥ": 7922,
      "CA": 7923,
      "ĠØ¥Ø¶Ø§Ùģ": 7924,
      "ĠØªÙħÙĨ": 7925,
      "ĠÙħÙĥØ§ÙģØŃØ©": 7926,
      "Ġri": 7927,
      "Ġproduced": 7928,
      "Ġestablished": 7929,
      "ico": 7930,
      "arning": 7931,
      "Ġperfect": 7932,
      "ĠØ§ÙĦØªØ¹ÙĦÙĬÙĤ": 7933,
      "ĠØªØŃØ¯ÙĬØ«": 7934,
      "ĠKing": 7935,
      "ÙĨÙĬÙĬÙĨ": 7936,
      "Ġprotect": 7937,
      "ĠØ§ÙĦÙħÙĪØ¬ÙĪØ¯Ø©": 7938,
      "ĠØ£Ø®Ø±": 7939,
      "ĠÙĪØ§ÙĦØ³ÙĦØ§Ùħ": 7940,
      "ĠØ£Ø´Ø§Ø±": 7941,
      "Ġlarger": 7942,
      "ĠØ£Ø³Øª": 7943,
      "ĠÙĪÙĬØªÙħ": 7944,
      "ĠØ§ÙĦÙĥÙĪÙĨ": 7945,
      "Ø§ÙĨØ¹": 7946,
      "Or": 7947,
      "91": 7948,
      "uild": 7949,
      "Ø¬ÙħØ§Øª": 7950,
      "ĠØ·Ùģ": 7951,
      "Ø¯ÙĬÙĩ": 7952,
      "Ġintern": 7953,
      "Ġcontinue": 7954,
      "Ø§Ø¦ÙĬØ§": 7955,
      "ĠØ§ÙĦØ¹ÙĦÙĪÙħ": 7956,
      "ĠØ§ØŃÙħØ¯": 7957,
      "Ed": 7958,
      "Ġult": 7959,
      "Ġcam": 7960,
      "Ø§Ø¬Ø¯": 7961,
      "ervice": 7962,
      "Ġannoun": 7963,
      "ĠØ§ÙĦØ¨Ø¯Ø§ÙĬØ©": 7964,
      "ĠÙĦØ®": 7965,
      "Ġdynam": 7966,
      "pret": 7967,
      "ĠId": 7968,
      "ÙĬÙĥÙĬØ©": 7969,
      "ĠØ±Ø£ÙĬ": 7970,
      "ĠÙĬØ±Ø¬": 7971,
      ")=": 7972,
      "ĠØªØ¬Ø§ÙĪØ²": 7973,
      "ĠØ¨ÙĬØ§ÙĨØ§Øª": 7974,
      "}.": 7975,
      "ĠØ§ÙĦÙģØµÙĦ": 7976,
      "Ġord": 7977,
      "ĠÙĦÙĦØ¨ÙĬØ¹": 7978,
      "ĠØ§ÙĦØ¬ÙĨÙĪØ¨ÙĬØ©": 7979,
      "orph": 7980,
      "term": 7981,
      "ara": 7982,
      "($": 7983,
      "mega": 7984,
      "cil": 7985,
      "Ġdouble": 7986,
      "ĠØ§ÙĦØªØ±ÙĥÙĬ": 7987,
      "ĠØŃÙģÙĦ": 7988,
      "ĠØ§ÙĦÙģØ±ÙĤ": 7989,
      "ĠÙĪÙĬØ¯": 7990,
      "ĠÙĦÙģØª": 7991,
      "New": 7992,
      "ĠØ§ÙĦØ£Ø³Ø¯": 7993,
      "ĠØ¨Ø³Ø±Ø¹Ø©": 7994,
      "ØºØ§ÙĨ": 7995,
      "Ġrot": 7996,
      "ĠØ§ÙĦØ§ÙĨØªØ±ÙĨØª": 7997,
      "Ġfinanc": 7998,
      "Ø¹ØªÙĤØ¯": 7999,
      "^[@": 8000,
      "ĠÙĨØ·Ø§ÙĤ": 8001,
      "ĠSun": 8002,
      "ĠÙħØ³Ø§Ø¹Ø¯": 8003,
      "ĠDecember": 8004,
      "Ġlocated": 8005,
      "call": 8006,
      "Ġstreng": 8007,
      "Ġacqu": 8008,
      "Ġetc": 8009,
      "uge": 8010,
      "ĠĊĠ": 8011,
      "ĠÙħØ¹Ø±Ø¶": 8012,
      "ĠÙħØ³ØªØ´ÙģÙī": 8013,
      "Ġpretty": 8014,
      "Ø£Ùħ": 8015,
      "Ġappropri": 8016,
      "Ø¯ÙĦ": 8017,
      "lo": 8018,
      "supp": 8019,
      "Ġhydro": 8020,
      "Ġnegative": 8021,
      "ØµØ§Øª": 8022,
      "ĠChina": 8023,
      "version": 8024,
      "oted": 8025,
      "Ġstar": 8026,
      "Ġdesigned": 8027,
      "Ġobtain": 8028,
      "Ġantib": 8029,
      "ĠAlthough": 8030,
      "band": 8031,
      "ĠØ¬ÙĪÙĨ": 8032,
      "Ø§ÙĤØ¨": 8033,
      "ford": 8034,
      "Ġ08": 8035,
      "SC": 8036,
      "ĠÙĦØ£ÙĬ": 8037,
      "ĠÙĪØ£ÙĪØ¶ØŃ": 8038,
      "ĠØ§ÙĦÙĦØ§Ø¹Ø¨ÙĬÙĨ": 8039,
      "Ġliter": 8040,
      "irect": 8041,
      "ĠÙĬÙĤØ¹": 8042,
      "ĠNovember": 8043,
      "aling": 8044,
      "ÙĥØ´": 8045,
      "Ġproposed": 8046,
      "length": 8047,
      "}}$": 8048,
      "ĠØ§ÙĦØ±Ø³ÙĪÙĦ": 8049,
      "ÙĩÙĩÙĩÙĩ": 8050,
      "ĠÙĦØ¹Ø§Ùħ": 8051,
      "Ø§Ø¦Ø·": 8052,
      "ØªÙĪÙĨ": 8053,
      "ously": 8054,
      "Ø§Ø·ÙĬ": 8055,
      "Ġvisit": 8056,
      "ÙĥÙħØ§ÙĦ": 8057,
      "ĠÙĪØ¨Ø¹Ø¶": 8058,
      "Ġmag": 8059,
      "ĠØµÙĦØ§Ø©": 8060,
      "Ġarch": 8061,
      "ĠÙħØ¹ÙĨÙī": 8062,
      "2018": 8063,
      "Ø¬ÙĬØ©": 8064,
      "ĠØŃÙģ": 8065,
      "Oh": 8066,
      "ĠØ§ÙĦØ£Ø³Ø±": 8067,
      "ĠØ§ÙĦØ´Ø±Ø¹ÙĬØ©": 8068,
      "ĠØ§ÙĦØ£ÙħÙĪØ§ÙĦ": 8069,
      "ĠØ£ÙĨÙĥ": 8070,
      "ĠØ§ÙĦØ®ÙĬØ±": 8071,
      "ĠØ§ÙĦÙģØ³Ø§Ø¯": 8072,
      "ĠMon": 8073,
      "Ġgrant": 8074,
      "ĠâĪĴ": 8075,
      "Ġfa": 8076,
      "Ġclean": 8077,
      "ĠĊĠĠĠĠĠĠĠĠĠĠĠĠĠĠĠ": 8078,
      "Ġpurch": 8079,
      "ĠØ§ÙĦØ£Ø¬ÙĩØ²Ø©": 8080,
      "inate": 8081,
      "ĠØ§ÙĦÙĤØ§ÙĨÙĪÙĨÙĬØ©": 8082,
      "ida": 8083,
      "ocks": 8084,
      "ĠØ§Ø¹ØªØ¨Ø§Ø±": 8085,
      "Ġhar": 8086,
      "Ġmoved": 8087,
      "eline": 8088,
      "ĠØªØ³ØªØ·ÙĬØ¹": 8089,
      "Ø§ÙģÙĤØ©": 8090,
      "Ġfine": 8091,
      "Ġallowed": 8092,
      "ĠØ´Ø§ÙĩØ¯": 8093,
      "Ġserious": 8094,
      "Ġ34": 8095,
      "Ġrecently": 8096,
      "ĠØ§ÙĦÙħÙĨØª": 8097,
      "ÙĦØ§ÙĬØ§": 8098,
      "ÙĪØ°": 8099,
      "ĠØ§ÙĦÙĦÙĬÙĦ": 8100,
      "Ø§ÙĦØµ": 8101,
      "coming": 8102,
      "ĠØ§ÙĦØ±ÙĪØ³ÙĬ": 8103,
      "ĠØ§ÙĦØ¨ØŃØ±ÙĬÙĨ": 8104,
      "ĠØ§ÙĦØ¸Ø±ÙĪÙģ": 8105,
      "ÙĪØ§ÙĨØ§Øª": 8106,
      "ĠØ§ØªØŃØ§Ø¯": 8107,
      "ÙĬÙĦÙĩ": 8108,
      "Ġpurpose": 8109,
      "Ġ300": 8110,
      "sing": 8111,
      "yond": 8112,
      "ĠØ§ÙĦÙĦØ¨ÙĨØ§ÙĨÙĬØ©": 8113,
      "ĠØ§ÙĦÙħÙĩÙħ": 8114,
      "ĠPhys": 8115,
      "Ġpoor": 8116,
      "from": 8117,
      "enty": 8118,
      "Ø§Ø²Ø§Øª": 8119,
      "obile": 8120,
      "ML": 8121,
      "ØŃÙĬØ§ÙĨØ§": 8122,
      "ĠØ§ÙĦÙĤØ§Ø¯Ùħ": 8123,
      "Ġworked": 8124,
      "ĠØ¬Ø§Ø¦Ø²Ø©": 8125,
      "Ġrule": 8126,
      "Ø®ÙĦÙĤ": 8127,
      "Ø´ÙĦÙĪÙĨØ©": 8128,
      "Ġsituation": 8129,
      "Ġways": 8130,
      "ĠØ§ÙĦØ¬Ø²ÙĬØ±Ø©": 8131,
      "ĠØ£ÙĨÙĨØ§": 8132,
      "ĠÙĦÙĦØ³ÙĬ": 8133,
      "ĠÙĦÙĦØ¨": 8134,
      "ĠØ§ÙĦØ¬ÙĨÙĪØ¨": 8135,
      "ĠØ³ÙĬØ§Ø³Ø©": 8136,
      "erve": 8137,
      "ÙĥØ±Ùĩ": 8138,
      "ĠØ§ÙĦØ¨Ø§Ø¨": 8139,
      "ĠDem": 8140,
      "Ġhighly": 8141,
      "ĠØªØ´ÙĥÙĦ": 8142,
      "Ġenh": 8143,
      "Ġmeasured": 8144,
      "ĠØ§ÙĦØ¹ÙħÙĦÙĬØ§Øª": 8145,
      "Ġmorning": 8146,
      "ĠØ§ÙĦØ¨Ø§Ø±": 8147,
      "ĠÙĬØŃØµÙĦ": 8148,
      "ĠØ§ÙĦÙĨØ§Ø¦Ø¨": 8149,
      "pat": 8150,
      "ĠÙħÙĪØ¶": 8151,
      "ĠØ§ÙĦØ¨Ø·ÙĪÙĦØ©": 8152,
      "Ġdevices": 8153,
      "Ġrelative": 8154,
      "ĠGeneral": 8155,
      "Ġmid": 8156,
      "Ġdegree": 8157,
      "ĠSystem": 8158,
      "ĠØ§ÙĦØ¯ÙĬÙĨÙĬØ©": 8159,
      "ĠØ¬ÙħØ§Ø¹Ø©": 8160,
      "ĠØ¬Ø§Ø¡Øª": 8161,
      "ÙĥÙĪØ±": 8162,
      "ĠØ³Ø§ÙĨ": 8163,
      "ĠÙĪØ§Ø³Ø¹Ø©": 8164,
      "ĠØ£Ø²ÙħØ©": 8165,
      "ethyl": 8166,
      "acing": 8167,
      "Ġinform": 8168,
      "Ø§Ø·Ø¹Ø©": 8169,
      "pa": 8170,
      "gorith": 8171,
      "ĠØªØŃÙĪÙĦ": 8172,
      "ĠÙĦØ¯ÙĬÙĩÙħ": 8173,
      "Ø´ÙĬØ§Ø¡": 8174,
      "ĠÙħÙĦØ§ÙĬÙĬÙĨ": 8175,
      "ĠÙħØ´Ø§Ø±Ùĥ": 8176,
      "cho": 8177,
      "Ġstress": 8178,
      "ÙĪØ§Ø±Ø¹": 8179,
      "ĠØ§ÙĦÙħÙĤØ§ÙĪÙħØ©": 8180,
      "ĠSchool": 8181,
      "ĠØ§ÙĦØ£Ø¹Ø¶Ø§Ø¡": 8182,
      "Ġresid": 8183,
      "Now": 8184,
      "Ġattention": 8185,
      "eful": 8186,
      "ĠØ¯ÙĤØ§Ø¦ÙĤ": 8187,
      "Ġparts": 8188,
      "reme": 8189,
      "Ø´Ø¨": 8190,
      "ĠØ§ÙĤØªØ±": 8191,
      "ĠDistrict": 8192,
      "Ø¹ÙĦÙĩ": 8193,
      "Ø³Ø§Ø¦Ø±": 8194,
      "Ġrow": 8195,
      "Ø±Ø§Ø¨Ø·": 8196,
      "Ø±Ø§Ø¦ÙĬÙĦ": 8197,
      "ĠØ§ÙĦÙĦÙĪØ§Ø¡": 8198,
      "ĠÙĪÙħØ¤": 8199,
      "ĠØ§ÙĦØ£Ø³ØªØ§Ø°": 8200,
      "ØµÙĬØ¯": 8201,
      "omy": 8202,
      "ĠØ§ÙĦØ±ÙĪØ³ÙĬØ©": 8203,
      "aily": 8204,
      "Ġhear": 8205,
      "ĠÙĬØ¨ÙĦØº": 8206,
      "ÙĦÙĤÙī": 8207,
      "ĠRed": 8208,
      "Ġda": 8209,
      "ĠÙĤØ§Ø¯Ø±": 8210,
      "Ġglobal": 8211,
      "Ġeight": 8212,
      "change": 8213,
      "ÙĪØµÙģ": 8214,
      "ĠFrom": 8215,
      "ĠØ§ÙĦÙĪØŃØ¯Ø©": 8216,
      "ĠØ§ÙĦØªØŃØ§ÙĦÙģ": 8217,
      "ĠØ³ÙĬÙħØ§": 8218,
      "ruary": 8219,
      "oring": 8220,
      "spec": 8221,
      "ĠØ£Ø¨Ø¯Ø§": 8222,
      "Ġcharge": 8223,
      "aa": 8224,
      "Ġassert": 8225,
      "Ø³ÙĬÙĤ": 8226,
      "eah": 8227,
      "ĠØ¨ÙĨØª": 8228,
      "known": 8229,
      "ĠØ§ÙĦÙĤØª": 8230,
      "max": 8231,
      "ĠØ§ÙĦÙĥØªØ¨": 8232,
      "Ġheat": 8233,
      "ĠØ§ÙģØ¶ÙĦ": 8234,
      "BS": 8235,
      "Ø¸ÙĪÙħØ©": 8236,
      "ĠØ§ÙĦÙĤØ¯Ø±Ø©": 8237,
      "EX": 8238,
      "Ġtreated": 8239,
      "ĠØ§ÙĦÙħØ´Ø§Ø±ÙĬØ¹": 8240,
      "Ø±Ø¨ÙĬÙĨ": 8241,
      "ĠÙĪØ§ÙĦÙħØª": 8242,
      "ĠÙģØµÙĦ": 8243,
      "Ġbirth": 8244,
      "Ġcapac": 8245,
      "###": 8246,
      "ĠØ§ÙĦÙħÙĨØ§Ùģ": 8247,
      "ĠØªØµØ±ÙĬØŃØ§Øª": 8248,
      "Ġeveryone": 8249,
      "ĠØ§ÙĦØªØ§Ø³": 8250,
      "Ø±ÙĤØ§Ùħ": 8251,
      "ĊĠĠĠĠĠĠĠĠĠĠĠĠĠĠĠĠĠĠĠĠĠĠĠ": 8252,
      "ĠÙĪØ§ÙĦÙħØ³Øª": 8253,
      "ĠØ§ÙĦÙĪØ§ØŃØ¯": 8254,
      "ĠCir": 8255,
      "ĠØ³Ø¤Ø§ÙĦ": 8256,
      "ĠØ§ÙĦÙħØ°Ùĥ": 8257,
      "psilon": 8258,
      "ĠØªØ£ØªÙĬ": 8259,
      "Ġprop": 8260,
      "Ġleading": 8261,
      "Ġimm": 8262,
      "Ġselected": 8263,
      "Ġargument": 8264,
      "ĠØ§ÙĦØ¥ØµØ§Ø¨Ø©": 8265,
      "ÙĪÙĬØªØ±": 8266,
      "ĠØ§ÙĦØŃØ¶": 8267,
      "ĠØ§ÙĦÙħØ¯ÙĨ": 8268,
      "ÙĪØ³Ø¹": 8269,
      "ĠÙħØ§Ø¯Ø©": 8270,
      "ÙĪØ¶Ø§Ø¹": 8271,
      "ulate": 8272,
      "Ġsuit": 8273,
      "Ġsomet": 8274,
      "ĠØ§ÙĦØ³ÙĬØ§Ø±Ø©": 8275,
      "psi": 8276,
      "ÙĩÙĪ": 8277,
      "ĠÙĪÙģØ±": 8278,
      "ĠOR": 8279,
      "));": 8280,
      "ĠØ§ÙĦØªØ¹ÙĦÙĬÙħÙĬØ©": 8281,
      "ĠÙħÙĨØ§": 8282,
      "Ø«Ø§ÙĦ": 8283,
      "Ġtoward": 8284,
      "Ø§Ø¦Ø±ÙĬ": 8285,
      "GF": 8286,
      "ØªÙĩØ§Ø¡": 8287,
      "Ġcentral": 8288,
      "ĠÙĪÙħÙĨÙĩØ§": 8289,
      "ĠØ§ÙĦØ²ÙĪØ§Ø¬": 8290,
      "ĠØ§ÙĦØ£ÙħÙĬÙĨ": 8291,
      "ĠØ§ÙĦØŃÙĦÙĤØ©": 8292,
      "ĠØ¹Ø¨Ø¯Ø§ÙĦØ¹Ø²ÙĬØ²": 8293,
      "ĠÙĬØŃÙĬ": 8294,
      "ĠØ§ÙĦØ®Ø§ÙħØ³": 8295,
      "ĠÙĦÙĥÙĨÙĩØ§": 8296,
      "Â¼": 8297,
      "Ġdistance": 8298,
      "Ġbeaut": 8299,
      "Ø¯Ø¯Ø§": 8300,
      "ÙģÙĬØ°ÙĬ": 8301,
      "bi": 8302,
      "ĠPark": 8303,
      "ĠØµØºÙĬØ±": 8304,
      "ĠØ§ÙĦØ¯Ø±Ø§Ø³Ø§Øª": 8305,
      "Ġsecret": 8306,
      "Ġisol": 8307,
      "Ġtravel": 8308,
      "ĠØµØ¨Ø§ØŃØ§": 8309,
      "Ġgraph": 8310,
      "ĠØ¨ØŃÙĤ": 8311,
      "ĠÙĪØªØª": 8312,
      "ØªØµØ§Øµ": 8313,
      "Ġbackground": 8314,
      "fn": 8315,
      "ĠØ§ÙĦØ¢ÙĬØ©": 8316,
      "ĠØ¹ÙħØ±ÙĪ": 8317,
      "Ġoperation": 8318,
      "hors": 8319,
      "ÙĩØ§Øª": 8320,
      "Ø§Ø±Ø¶": 8321,
      "ĠÙħÙĨØ²": 8322,
      "inct": 8323,
      "ĠØªØ²Ø§ÙĦ": 8324,
      "ĠÙħÙĨØªØ®Ø¨": 8325,
      "ĠØ§ÙĦØ³ÙĥØ§ÙĨ": 8326,
      "%,": 8327,
      "ĠÙħØŃÙĥÙħØ©": 8328,
      "Ġstation": 8329,
      "ĠØ¥Ø¹ÙĦØ§Ùħ": 8330,
      "ĠØ§ÙĦÙĬØ¯": 8331,
      "ĠØ§ÙĦÙĨÙĩØ§ÙĬØ©": 8332,
      "vare": 8333,
      "ĠØŃÙĬØ§ØªÙĩ": 8334,
      "SP": 8335,
      "Ġmount": 8336,
      "ĠØ§ÙĦÙĤØ¶Ø§ÙĬØ§": 8337,
      "Ġrates": 8338,
      "ĠØ§ÙĦÙģØ±Ø¯": 8339,
      "efore": 8340,
      "ĠØ¯ÙħØ´ÙĤ": 8341,
      "ÙĪÙĤØ©": 8342,
      "ĠÙĪØ§ÙĦÙħØ¯": 8343,
      "ÙĬØ³Ùī": 8344,
      "ÙĦÙĪ": 8345,
      "pid": 8346,
      "ĠØ§ÙĦØŃÙģØ§Ø¸": 8347,
      "Ġmer": 8348,
      "ÙĦÙĪÙĦ": 8349,
      "ĠÙĬØ¯Ø®ÙĦ": 8350,
      "Cal": 8351,
      "iled": 8352,
      "Ø¹ÙĦÙĪÙħ": 8353,
      "mpt": 8354,
      "Ø·Ø§": 8355,
      "iring": 8356,
      "ĠÙĪØ§": 8357,
      "Ġphen": 8358,
      "Ġdivided": 8359,
      "ĠØ§ÙĦØ±ÙĤÙħ": 8360,
      "vis": 8361,
      "ĠJud": 8362,
      "Ġlocation": 8363,
      "ĠAp": 8364,
      "semb": 8365,
      "}=": 8366,
      "ÙħÙī": 8367,
      "Ġcaused": 8368,
      "ĠØ§ÙĦÙħØ¯ÙĨÙĬØ©": 8369,
      "zz": 8370,
      "Ġfailed": 8371,
      "EC": 8372,
      "ĠØ§ÙĦÙĪÙģ": 8373,
      "ĠÙĪØ£ÙħØ§": 8374,
      "\\].": 8375,
      "Ø§ÙĪÙĦØ§Øª": 8376,
      "Mod": 8377,
      "ÙģØ²": 8378,
      "ĠØ§ÙĦØªØºÙĬÙĬØ±": 8379,
      "izes": 8380,
      "ĠØ¹Ø¯ÙĬØ¯Ø©": 8381,
      "ĠØ§ÙĦØŃÙĤÙĬÙĤÙĬ": 8382,
      "js": 8383,
      "ĠØ§ÙĦÙĪØ«": 8384,
      "Ġvoice": 8385,
      "ĠÙĪØ£Ø³": 8386,
      "df": 8387,
      "ĠÙĪÙĦÙĥÙĨÙĩ": 8388,
      "Ġlegal": 8389,
      "Ġcountries": 8390,
      "ĠStud": 8391,
      "Ġmanagement": 8392,
      "ĠØ§ÙĦÙĩÙĦØ§ÙĦ": 8393,
      "Ġinstance": 8394,
      "Ġneigh": 8395,
      "Ø§ÙĥÙĨ": 8396,
      "SY": 8397,
      "ĠØ§ÙħØ§Ùħ": 8398,
      "Omega": 8399,
      "Ø§ÙħØª": 8400,
      "ÙģÙĤØ§Øª": 8401,
      "ĠÙĪØ§ÙĦØ¥ÙĨ": 8402,
      "Ġthreat": 8403,
      "non": 8404,
      "iated": 8405,
      "ĠMich": 8406,
      "Ġlas": 8407,
      "ĠÙħØµØ·ÙģÙī": 8408,
      "ÙĤÙĬØ§Ùħ": 8409,
      "ĠØ¯Ø§Ø¦Ø±Ø©": 8410,
      "itness": 8411,
      "Ø¯Ø±Ø³": 8412,
      "ĠØ¨ØªÙĨ": 8413,
      "ØªØ¯ÙĬØ§Øª": 8414,
      "ÙĨØªÙĬÙĨ": 8415,
      "ĠØ«Ø§ÙĦØ«": 8416,
      "ĠÙħØ³Ø¨": 8417,
      ")).": 8418,
      "abase": 8419,
      "ĠØ§ÙĦØ¨Ø®": 8420,
      "ĠØ¹Ø¯Ø¯Ø§": 8421,
      "ĠØ£ÙĬÙĨ": 8422,
      "ĠÙĦØµØ§ÙĦØŃ": 8423,
      "ĠØ§ÙĦÙĦÙĩÙħ": 8424,
      "ÙĥØ±Ø±": 8425,
      "ÙĩÙĦÙĥ": 8426,
      "ÙĪØ±ÙĩØ§": 8427,
      "ĠØ§ÙĦØ¨ÙĦØ¯Ø§ÙĨ": 8428,
      "aur": 8429,
      "Ġindividuals": 8430,
      "Ġbal": 8431,
      "Ġ02": 8432,
      "ĠÙĤØ§Ø¹Ø¯Ø©": 8433,
      "ĠØ§ÙĦØµØŃÙĬØŃ": 8434,
      "ĠØ§ÙĦØ³ÙĬØ§ØŃØ©": 8435,
      "exp": 8436,
      "Bl": 8437,
      "gu": 8438,
      "ĠØ³ÙĦÙħ": 8439,
      "ÙģØ§Ø¡Ø©": 8440,
      "Ġearlier": 8441,
      "Ġhit": 8442,
      "Suppose": 8443,
      "Ġpen": 8444,
      "was": 8445,
      "ĠÙĤØ±Ø¨": 8446,
      "wide": 8447,
      "ĠØªØŃØ±ÙĬØ±": 8448,
      "Ġhundred": 8449,
      "Ø§Ø¯ÙĬÙħÙĬØ©": 8450,
      "ĠÙģØ¬": 8451,
      "ĠØªØŃÙĪÙĬÙĦ": 8452,
      "Ø§ÙĥØ©": 8453,
      "ais": 8454,
      "ĠÙģÙĤ": 8455,
      "Ø§Ø¶Ø±": 8456,
      "Ø«Ø±Ø©": 8457,
      "Ġ00": 8458,
      "ights": 8459,
      "ÙĪØµÙĪÙĦ": 8460,
      "ĠØ§ÙĦØ³Ø§Ø¯Ø³": 8461,
      "ĠØ§ÙĦØ¥ÙĬØ±Ø§ÙĨÙĬ": 8462,
      "Sc": 8463,
      "Ġgives": 8464,
      "Ġtechnology": 8465,
      "map": 8466,
      "ĠØ§ÙĦØµØŃÙģÙĬ": 8467,
      "ĠØµØŃÙĬ": 8468,
      "Ġreading": 8469,
      "ees": 8470,
      "Ġuseful": 8471,
      "Ø¬ÙĬØ¹": 8472,
      "ĠØºÙĬØ±Ùĩ": 8473,
      "ĠRec": 8474,
      "ĠØ¯Ø±Ø¬": 8475,
      "Ġdeb": 8476,
      "Ġenjoy": 8477,
      "Ġsufficient": 8478,
      "ĠAustral": 8479,
      "operator": 8480,
      "ĠÙĪØ£Ø®": 8481,
      "ĠØ§ÙĦÙģÙĨØ¯ÙĤ": 8482,
      "Ġqual": 8483,
      "ÙĥØªØ§Ø¨": 8484,
      "ĠÙĤØ§Ø¦Ø¯": 8485,
      "ĠØŃØ¶ÙĪØ±": 8486,
      "ĠØŃØ¶Ø±": 8487,
      "ĠØªØ´ÙħÙĦ": 8488,
      "ĠÙħØ¨Ø§Ø±ÙĬØ§Øª": 8489,
      "ĠØ¥Ø±": 8490,
      "ĠØ«Ø§ÙĨÙĬØ©": 8491,
      "SA": 8492,
      "ĠAfric": 8493,
      "ĠØµÙĬ": 8494,
      "Ġexperien": 8495,
      "ĠÙħÙĥØ©": 8496,
      "ancy": 8497,
      "Ø¨Ø³": 8498,
      "Ġ2002": 8499,
      "ĠØ¨Ø¹ÙĬØ¯Ø§": 8500,
      "Ġformed": 8501,
      "ĠØ§ÙĦØ±Ø¦": 8502,
      "ÙħØŃ": 8503,
      "ĠTrans": 8504,
      "Ġusers": 8505,
      "Ġwife": 8506,
      "ĠØ®ÙĬØ§Ø±": 8507,
      "overn": 8508,
      "ĠØ§ÙĦØ³Ø¤Ø§ÙĦ": 8509,
      "king": 8510,
      "Ġfixed": 8511,
      "OW": 8512,
      "Ġproteins": 8513,
      "Ġcurrently": 8514,
      "Ġidentify": 8515,
      "Ġ42": 8516,
      "ellant": 8517,
      "ĠØ¨Ø·Ø§ÙĤØ©": 8518,
      "Ġdetails": 8519,
      "ĠØ§ÙĦØ´Ø¹Ø¨ÙĬ": 8520,
      "ĠØ§Ø®Ø±Ùī": 8521,
      "ĠØ³ÙĬØª": 8522,
      "ĠØ¥ÙĤÙĦÙĬÙħ": 8523,
      "ĠÙģÙģÙĬ": 8524,
      "Ġplant": 8525,
      "ÙĪÙĤÙĬØª": 8526,
      "ÙĪÙĬÙĪØ±Ùĥ": 8527,
      "ĠØ§ÙĦØ²ÙĬ": 8528,
      "500": 8529,
      "ĠØ§ÙĦØ±Ø£ÙĬ": 8530,
      "ĠØ§ÙĦÙĪØ§ÙĤ": 8531,
      "ĠØ§ÙĦØºØ°Ø§Ø¦ÙĬØ©": 8532,
      "Ġcomment": 8533,
      "ĠLondon": 8534,
      "Ġfrequency": 8535,
      "Ø§Ø³ÙĦ": 8536,
      "ĠÙħØ¹ÙĩÙħ": 8537,
      "Ġproceed": 8538,
      "ĠØ§ÙĦÙħØªÙĪØ³Ø·": 8539,
      "athe": 8540,
      "ato": 8541,
      "ÙĪÙĤØ¯": 8542,
      "ĠÙĪØªØ±Ùĥ": 8543,
      "ĠØ£ØŃØ¯Ø«": 8544,
      "Ġbank": 8545,
      "ĠØ¶Ø¨Ø·": 8546,
      "Ø§ÙĥÙħØ©": 8547,
      "ÙĪØ¯ÙĬ": 8548,
      "ĠØ°Ø§ØªÙĩ": 8549,
      "Par": 8550,
      "entially": 8551,
      "ÙĩÙĪÙħ": 8552,
      "Gamma": 8553,
      "ĠØ¨ÙĪØª": 8554,
      "Ġcomponents": 8555,
      "ĠÙħÙĪÙĨ": 8556,
      "ĠØ§ÙĦÙĦØ¹Ø¨Ø©": 8557,
      "ÙĨÙĪØ§ÙĨ": 8558,
      "Ø¯ÙĬÙĤØ©": 8559,
      "ĠBritish": 8560,
      "ĠØ³ÙĦÙĬÙħØ§ÙĨ": 8561,
      "Ø²ÙħØ§Øª": 8562,
      "Ġsurpr": 8563,
      "ĠÙĪÙĦØ°ÙĦÙĥ": 8564,
      "ĠØ¨Ø¹Ø¯ÙĩØ§": 8565,
      "ÙĩÙĦØ©": 8566,
      "ĠØ¨ÙĨÙĥ": 8567,
      "ĠØ§ÙĦØ¬ÙĪÙĦØ©": 8568,
      "Ø±ÙĬÙĤÙĬØ©": 8569,
      "2013": 8570,
      "group": 8571,
      "Ġcompletely": 8572,
      "ĠØ§ÙĦØªÙħÙĪ": 8573,
      "urt": 8574,
      "ĠÙĬØŃØªÙĪÙĬ": 8575,
      "Ġ[**": 8576,
      "ĠArt": 8577,
      "Ġtowards": 8578,
      "){#": 8579,
      "ÙĥÙħÙĦ": 8580,
      "ĠØªØŃØ³ÙĬÙĨ": 8581,
      "ĠØ§ÙĦØ£Ø³ÙĪØ§ÙĤ": 8582,
      "unction": 8583,
      "ĠÙħØµÙĨØ¹": 8584,
      "ka": 8585,
      "Ġmyself": 8586,
      "ocation": 8587,
      "Ġ2001": 8588,
      "Ġscale": 8589,
      "Ġfair": 8590,
      "ØµØ§Ø¨": 8591,
      "Ø¶Ø§Ø¹": 8592,
      "ĠØ¨ØªØ§Ø±ÙĬØ®": 8593,
      "ĠÙĪØ§ÙĦØ§Øª": 8594,
      "ÙħÙĬØ±": 8595,
      "tee": 8596,
      "ÙĪØ±Ø¬": 8597,
      "Ġnovel": 8598,
      "Ġstatic": 8599,
      "ÙĨØ³Ø§Ø¡": 8600,
      "Ġchanged": 8601,
      "ĠØ§ÙĦÙħØ§ÙĦÙĬ": 8602,
      "Äĥ": 8603,
      "ĠØ§ÙĦÙħÙĨØ§Ø³Ø¨Ø©": 8604,
      "ĠÙħØªØ¹Ø¯Ø¯Ø©": 8605,
      "adem": 8606,
      "Ġemb": 8607,
      "ÙģØ°": 8608,
      "ÙĬÙĨÙĩ": 8609,
      "ĠÙħØ¹Ø¯ÙĦ": 8610,
      "ĠØŃØ¯ÙĪØ«": 8611,
      "ĠÙĤØ±ÙĬØ©": 8612,
      "cap": 8613,
      "Ġswe": 8614,
      "Ġstim": 8615,
      "Ġsubstant": 8616,
      "fort": 8617,
      "Ġmanufact": 8618,
      "ĠØªÙĤÙĬÙĬÙħ": 8619,
      "ÙħÙĦÙĬØ©": 8620,
      "ener": 8621,
      "Ġwonder": 8622,
      "Ø·ÙĦØ¨Ø§Øª": 8623,
      "Ġmatrix": 8624,
      "ĠØªÙĨØ¸ÙĬÙģ": 8625,
      "Ġratio": 8626,
      "Ø£ÙĨÙĩ": 8627,
      "ĠØ§ÙĦØ£Ø·Ø±Ø§Ùģ": 8628,
      "ĠØ§ÙĦØ±ÙĬØ§Ø¶Ø©": 8629,
      "Ġweb": 8630,
      "Ġcontains": 8631,
      "ĠØ¨ÙĦØºØª": 8632,
      "rightarrow": 8633,
      "Ġdecided": 8634,
      "ĠØªØ´ØºÙĬÙĦ": 8635,
      "Ġrelig": 8636,
      "ĠØ£Ø®Ø¨Ø±": 8637,
      "ĠØ§Ø³ØªØ±Ø§ØªÙĬØ¬ÙĬØ©": 8638,
      "ĠØ§ÙĦØ£ØŃØ¯Ø§Ø«": 8639,
      "Ġchoice": 8640,
      "ĠÙĩØ§Ùħ": 8641,
      "Ġaim": 8642,
      "ĠTH": 8643,
      "ĠØ£ÙĦÙħØ§ÙĨÙĬØ§": 8644,
      "ĠØªØ±Ùī": 8645,
      "Ġpor": 8646,
      "ĠØ§ÙĦÙħÙĤØ±Ø±": 8647,
      "Ġfederal": 8648,
      "elle": 8649,
      "Âº": 8650,
      "nes": 8651,
      "ĠØ¹ÙħØ§": 8652,
      ")$,": 8653,
      "Ġclust": 8654,
      "Ø§Ø¯ÙĦØ©": 8655,
      "ĠØªØ³Ø¨Ø¨": 8656,
      "Ġarm": 8657,
      "Ġpsych": 8658,
      "ibly": 8659,
      "Ġeasily": 8660,
      "amm": 8661,
      "Ġ^": 8662,
      "orage": 8663,
      "Ġ95": 8664,
      "ĠØ§ÙĦØ·Ø¨ÙĬØ¹ÙĬ": 8665,
      "ĠØ§ÙĦÙĨÙĩØ§Ø¦ÙĬ": 8666,
      "ÙĪØªÙĩ": 8667,
      "ãĢĤ": 8668,
      "Ġagreement": 8669,
      "Ġ38": 8670,
      "ĠØªÙĪÙĤØ¹": 8671,
      "Object": 8672,
      "ĠJe": 8673,
      "ĠØ¢ÙĨ": 8674,
      "ĠÙħØ¯Ø§Ø±": 8675,
      "ĠØ§ÙĦØ¶ØºØ·": 8676,
      "ĠØ§ÙĦÙĨÙĪÙħ": 8677,
      "ĠÙħØ·Ø§Ø±": 8678,
      "Ø¬Ø²Ø§Ø¡": 8679,
      "orem": 8680,
      "iency": 8681,
      "ĠÙħÙĬØ§Ùĩ": 8682,
      "ÙĪÙĦÙĨ": 8683,
      "iÃ³n": 8684,
      ",'": 8685,
      "Ø§Ø±ÙĤØ©": 8686,
      "plit": 8687,
      "ĠDepartment": 8688,
      "ĠØ§ÙĦØ§Ø±Ø¯": 8689,
      "2019": 8690,
      "Ġboard": 8691,
      "ĠÙĦØ¯ÙĬÙĥ": 8692,
      "Yes": 8693,
      "ĠÙĦÙĦØ§Øª": 8694,
      "Ġpopular": 8695,
      "ĠCons": 8696,
      "Ø°Ø§Ø¨": 8697,
      "Ø²Ø§ÙĨ": 8698,
      "ĠØ±ØŃÙħÙĩ": 8699,
      "Ġ03": 8700,
      "ĠØ§ÙĦØ£ÙĥØ¨Ø±": 8701,
      "ĠØ³Ø§Ø¨ÙĤØ§": 8702,
      "ĠÙĪØµÙĦØª": 8703,
      "bb": 8704,
      "Ġcampaign": 8705,
      "ĠÙĪØªØ¬": 8706,
      "ĠØªÙģØ³ÙĬØ±": 8707,
      "Ø§Ø´Ø¯": 8708,
      "/>": 8709,
      "ny": 8710,
      "ano": 8711,
      "ĠÙĪØ§ÙĦØ´Ø±": 8712,
      "Ø§Ø¨ÙĬØ¹": 8713,
      "ĠØ§ÙĦØµÙĨØ§Ø¹ÙĬØ©": 8714,
      "ĠØ§Ø®Ø±": 8715,
      "ĠØ§ÙĦØ°Ùĩ": 8716,
      "ĠÙħÙĨØ²ÙĦ": 8717,
      "ĠØ§ÙĦÙħØªÙĨ": 8718,
      "ĠØ§ÙĦØ¥Ø³Ø¨": 8719,
      "ĠØ§ÙĦÙħØ´ØªØ±Ùĥ": 8720,
      "Ġculture": 8721,
      "ĠØ£ÙħÙĦ": 8722,
      "Ġ05": 8723,
      "Ġsites": 8724,
      "Ġgun": 8725,
      "ĠØ¥ÙĤØ§ÙħØ©": 8726,
      "čĊĠ": 8727,
      "Ġsaf": 8728,
      "ĠØ¯ÙĪØ±Ø©": 8729,
      "FL": 8730,
      "Ġfindings": 8731,
      "ĠÙħØ´Ø§Ø±ÙĬØ¹": 8732,
      "varepsilon": 8733,
      "Ġcomputer": 8734,
      "Ġ----------------": 8735,
      "Ġnumer": 8736,
      "ĠØ§ÙĦØªØ¬Ø§Ø±ÙĬ": 8737,
      "Ġdog": 8738,
      "ĠÙĨÙĨ": 8739,
      "Text": 8740,
      "ĠØ§ÙĦØ¨ØŃØ±ÙĬØ©": 8741,
      "ĠØªØ¨Ø¯Ø£": 8742,
      "ocol": 8743,
      "ĠÙĬØ´ÙĥÙĦ": 8744,
      "rate": 8745,
      "Ġsche": 8746,
      "ĠBro": 8747,
      "ĠØ¨ÙĬØ±ÙĪØª": 8748,
      "Ø§ÙĬÙģ": 8749,
      "ĠWilli": 8750,
      "Ġdefault": 8751,
      "Ø¦Ùĥ": 8752,
      "Ġprice": 8753,
      "Ø§ÙĦÙĬØ¨": 8754,
      "Ð²": 8755,
      "ĠØ§ÙĦØ¥Ø®ÙĪØ§ÙĨ": 8756,
      "ĠØ¯ÙĪ": 8757,
      "zed": 8758,
      "ĠHigh": 8759,
      "ĠÙĪØªÙģ": 8760,
      "ĠØ³ØªØ©": 8761,
      "itions": 8762,
      "uted": 8763,
      "Ø±ÙĪÙģØ©": 8764,
      "Ġwebsite": 8765,
      "ĠÙħØªÙħ": 8766,
      "Ġnamed": 8767,
      "orge": 8768,
      "ĠØ§ÙĦØ¥Ùģ": 8769,
      "ĠØ¨ÙħØ³": 8770,
      "Ġcommit": 8771,
      "ĠØ·ÙĪØ§ÙĦ": 8772,
      "Des": 8773,
      "ĠØ§ÙĦØŃØ§Ø¬Ø©": 8774,
      "Ġunique": 8775,
      "argin": 8776,
      "ĠØªØ¹ÙĬÙĬÙĨ": 8777,
      "((": 8778,
      "Ġ]": 8779,
      "ĠØ§ÙĦØ®ÙĬØ§Ø±": 8780,
      "Ø±Ø±": 8781,
      "Ø§ÙĦÙĥØªØ±": 8782,
      "ĠØ¹ÙĪØ¯Ø©": 8783,
      "Ø±ÙĬØ§Ø¶": 8784,
      "ĠØ§ÙĦØ³ÙĬØ·Ø±Ø©": 8785,
      "ĠÙĨØµØ±": 8786,
      "Ġ~": 8787,
      "iforn": 8788,
      "ĠÙĪØ§ÙĦØ¨Ø±": 8789,
      "ÙĥÙĨØª": 8790,
      "Ġcompanies": 8791,
      "ĠHol": 8792,
      "OV": 8793,
      "ĠMus": 8794,
      "Ġinn": 8795,
      "icip": 8796,
      "Ġindustry": 8797,
      "ÑĮ": 8798,
      "ĠØµÙģØŃØ©": 8799,
      "ÙĥÙĪÙĨØ§Øª": 8800,
      "ĠFebruary": 8801,
      "index": 8802,
      "Ġnames": 8803,
      "ĠØ¹ØµØ±": 8804,
      "ĠÙĥÙĨØ§": 8805,
      "ĠØ§ÙĦÙħÙĩÙĨØ¯Ø³": 8806,
      "ĠĠĠĠĠĠĠĠĠĠĠĠĠĠĠĠĠĠĠ": 8807,
      "ffer": 8808,
      "iers": 8809,
      "Ġprime": 8810,
      "ĠØ§ÙĦÙĥÙĩØ±Ø¨Ø§Ø¡": 8811,
      "ĠØ§ÙĦØŃØ±Ø§Ø±Ø©": 8812,
      "Fr": 8813,
      "Ġphone": 8814,
      "ĠÙĦÙĦØªÙĨ": 8815,
      "CE": 8816,
      "Ø³ÙĬØ§": 8817,
      "ĠØ¯Ùĩ": 8818,
      "ĠØ§ÙĦØ§ÙĨØªØ®": 8819,
      "TT": 8820,
      "ĠØ¯Ø§Ø®": 8821,
      "Ġnotice": 8822,
      "ĠØ§ÙĦØ¹Ø¯Ø¯": 8823,
      "ares": 8824,
      "Ø°ÙĬØ¨": 8825,
      "aught": 8826,
      "Ġ07": 8827,
      "Ñĭ": 8828,
      "ÙĤÙĬÙħ": 8829,
      "Ġlat": 8830,
      "ĠÙĨØ¬Ø¯": 8831,
      "sa": 8832,
      "ĠÙħØ¤Ø´Ø±": 8833,
      "ĠÙħÙħØ§Ø±Ø³Ø©": 8834,
      "ĠØªØ¶Ùħ": 8835,
      "2015": 8836,
      "chi": 8837,
      "ĠÙĦÙĨØ¯ÙĨ": 8838,
      "ĠOb": 8839,
      "ĠØ¨Ø¶": 8840,
      "Ø§ÙĬÙĬØ±": 8841,
      "ĠØ§ÙĦÙħØªÙħ": 8842,
      "epsilon": 8843,
      "ĠMod": 8844,
      "room": 8845,
      "ĠÙħÙĨØ´": 8846,
      "Ġthous": 8847,
      "Ġmeaning": 8848,
      "ĠØ§ÙĦÙĩÙĪØ§Ø¡": 8849,
      "ĠØ¨ÙĬÙĨÙĩÙħØ§": 8850,
      "ĠØ§ÙĦÙħØµØ§Ø¯Ø±": 8851,
      ")-": 8852,
      "Ġsometimes": 8853,
      "ÙĪØ³Ø·Ø©": 8854,
      "Ġextra": 8855,
      "ĠØ§Ø¨ÙĪ": 8856,
      "Ġhyper": 8857,
      "ULL": 8858,
      "ĠRepublic": 8859,
      "Ø§Ø¨ÙĦØ³": 8860,
      "Ġcarry": 8861,
      "ned": 8862,
      "Ġbeyond": 8863,
      "*.": 8864,
      "Ġconcept": 8865,
      "ĠØ§Ø°": 8866,
      "ĠØ¥ÙħÙĥØ§ÙĨÙĬØ©": 8867,
      "ØµÙĬÙĦ": 8868,
      "Ġones": 8869,
      "ĠØ§ÙĦÙĦØ¨ÙĨØ§ÙĨÙĬ": 8870,
      "Ġmulti": 8871,
      "Ġworth": 8872,
      "ĠØ£Ø·": 8873,
      "ĠØ§ÙĦÙĨØ§Øª": 8874,
      "ĠØ§ÙĦØªÙĨÙģÙĬØ°ÙĬ": 8875,
      "ĠÙĪØ§Ø¶ØŃØ©": 8876,
      "Ø«ÙĤ": 8877,
      "Ġarriv": 8878,
      "ouble": 8879,
      "Ġ\\<": 8880,
      "Ġimag": 8881,
      "ĠØ¬Ø§Ùħ": 8882,
      "ĠÙħØ±Ø§ÙĥØ²": 8883,
      "Ø®Ø¨Ø§Ø±": 8884,
      "ĠÙĪØ±Ø¨ÙħØ§": 8885,
      "ĠØ¨Ø£Ø³": 8886,
      "ĠÙĪØ§ÙĦØªØ±": 8887,
      "ĠØ§ÙĦØ¹ÙĤØ¯": 8888,
      "Ġtour": 8889,
      "Ø§ÙĦØ´": 8890,
      "mark": 8891,
      "Ġauthors": 8892,
      "ifically": 8893,
      "ĠØ§Ø¬ÙĦ": 8894,
      "^+": 8895,
      "ØµØ¯ÙĤ": 8896,
      "Ġcool": 8897,
      "ĠÙĪÙħØ´": 8898,
      "Ġderivative": 8899,
      "ĠØ¥ØµØ§Ø¨Ø©": 8900,
      "ĠØµÙĨØ¯ÙĪÙĤ": 8901,
      "ĠØ§ÙĦØªÙĤØ¯Ùħ": 8902,
      "ÙĥÙĦÙģ": 8903,
      "hand": 8904,
      "Ġtissue": 8905,
      "ĠØªÙĪØ²ÙĬØ¹": 8906,
      "ĠØ³Ø§Ùħ": 8907,
      "ØªÙĬØ©": 8908,
      "Ġseemed": 8909,
      "Ø±ÙĪÙĬØ¬": 8910,
      "ĠØ§ÙĦØ¬ÙĨØ©": 8911,
      "ĠÑģ": 8912,
      "Ġexpressed": 8913,
      "Ġrequires": 8914,
      "Ø§Ø¨Ø·Ø©": 8915,
      "Ġcook": 8916,
      "Ġcontaining": 8917,
      "ĠØ§ÙĦØµØ¯": 8918,
      "Ġremains": 8919,
      "oding": 8920,
      "ĠÙĬØ¬Ø±ÙĬ": 8921,
      "Ġspeak": 8922,
      "irt": 8923,
      "Ġalbum": 8924,
      "_.": 8925,
      "Ø´Ø±Ø§Ùģ": 8926,
      "ĠÎ¼": 8927,
      "Ġslight": 8928,
      "Ġcontrast": 8929,
      "Ġtim": 8930,
      "Ġhab": 8931,
      "Ġallows": 8932,
      "Ġcomponent": 8933,
      "RT": 8934,
      "Ġhighest": 8935,
      "Ġcircum": 8936,
      "Ġdescript": 8937,
      "void": 8938,
      "iate": 8939,
      "ĠØ§ÙĦØªØ§Ø±ÙĬØ®ÙĬØ©": 8940,
      "Ġfailure": 8941,
      "ĠÙħØ³Ø¦": 8942,
      "ky": 8943,
      "Ġcandid": 8944,
      "Ġoption": 8945,
      "ĠØ§ÙĦØ£Ø¹": 8946,
      "2011": 8947,
      "Int": 8948,
      "ĠChe": 8949,
      "Ø·ÙĦÙĤØª": 8950,
      "ĠÙĪØ§ÙĦØ§Ø¬ØªÙħØ§Ø¹": 8951,
      "ĠØ¬ÙĪØ¯Ø©": 8952,
      "Ġrecept": 8953,
      "ĠÙĨÙģØ³ÙĬ": 8954,
      "ĠÙĨÙħÙĪØ°Ø¬": 8955,
      "ĠSen": 8956,
      "Ġplayer": 8957,
      "Ġsupported": 8958,
      "public": 8959,
      "Ġ06": 8960,
      "ĠDet": 8961,
      "ĠÙĪØªØµ": 8962,
      "ĠØ§ÙĦØ¬ÙĩÙĪØ¯": 8963,
      "Ø¬Ø§": 8964,
      "ĠØ§ÙĦÙħØªÙĩÙħ": 8965,
      "ØªØµØ§Ø±": 8966,
      "ĠMark": 8967,
      "Ġeducation": 8968,
      "ØŃØ§ÙĬØ§": 8969,
      "Ġmode": 8970,
      "ĠØ§ØŃØªØ¬": 8971,
      "ĠØ§ÙĦØ£ÙĪØ±ÙĪØ¨ÙĬØ©": 8972,
      "ashington": 8973,
      "Ġ()": 8974,
      "Ġdrive": 8975,
      "ĠØ£Ø¹Ø¯": 8976,
      "ĠÙĪØ¹ÙĨØ¯ÙħØ§": 8977,
      "ĠÙĦÙĬØª": 8978,
      "Ġvs": 8979,
      "ifornia": 8980,
      "Ġroll": 8981,
      "ÙĬØ·Ø§ÙĨ": 8982,
      "Ġmilitary": 8983,
      "active": 8984,
      "Ø¨ØŃØ§Ø«": 8985,
      "ĠØ¨Ø¹Ø¶ÙĩÙħ": 8986,
      "ĠØ£Ø¶": 8987,
      "ÂĤ": 8988,
      "ĠÙĪÙĦÙĦ": 8989,
      "Ġinterview": 8990,
      "ĠØªØ´Ø±ÙĬÙĨ": 8991,
      "Ġ__": 8992,
      "ĠTw": 8993,
      "Ø«ÙĬÙĦ": 8994,
      "Ġdied": 8995,
      "ĠÙĬØ¤ÙĥØ¯": 8996,
      "ĠØ¹Ø§Ø¬": 8997,
      "othes": 8998,
      "ĠØ§ÙĦÙģÙĦØ³Ø·ÙĬÙĨÙĬÙĬÙĨ": 8999,
      "Ġmur": 9000,
      "ĠØ§ÙĦØ¹Ø§ÙħÙĦÙĬÙĨ": 9001,
      "Ø²Ø²": 9002,
      "Ġwide": 9003,
      "Ġremember": 9004,
      "iques": 9005,
      "rick": 9006,
      "ĠØ§ÙĦØµÙĩÙĬ": 9007,
      "Ġmedium": 9008,
      "rier": 9009,
      "ĠÙħØ³ØªÙĤØ¨ÙĦ": 9010,
      "irmed": 9011,
      "ĠÙĥÙĪ": 9012,
      "Ġcareer": 9013,
      "ĠØ§ÙĦØŃØ±ÙĬØ©": 9014,
      "ĠÙĥØ±ÙĬ": 9015,
      "ĠØ§ÙĦÙĨØµØ±": 9016,
      "ĠÙĪØ§ÙĦØªØŃ": 9017,
[...]
